{
  "version": "1.0",
  "truncation": null,
  "padding": null,
  "added_tokens": [
    {
      "id": 0,
      "content": "<|endoftext|>",
      "single_word": false,
      "lstrip": false,
      "rstrip": false,
      "normalized": false,
      "special": true
    }
  ],
  "normalizer": null,
  "pre_tokenizer": {
    "type": "ByteLevel",
    "add_prefix_space": false,
    "trim_offsets": true,
    "use_regex": true
  },
  "post_processor": null,
  "decoder": {
    "type": "ByteLevel",
    "add_prefix_space": true,
    "trim_offsets": true,
    "use_regex": true
  },
  "model": {
    "type": "BPE",
    "dropout": null,
    "unk_token": null,
    "continuing_subword_prefix": null,
    "end_of_word_suffix": null,
    "fuse_unk": false,
    "byte_fallback": false,
    "ignore_merges": false,
    "vocab": {
      "<|endoftext|>": 0,
      "!": 1,
      "\"": 2,
      "'": 3,
      "(": 4,
      ")": 5,
      "*": 6,
      "+": 7,
      ",": 8,
      "-": 9,
      ".": 10,
      "/": 11,
      "0": 12,
      "1": 13,
      "2": 14,
      "3": 15,
      "4": 16,
      "5": 17,
      "6": 18,
      "7": 19,
      "8": 20,
      "9": 21,
      ";": 22,
      "<": 23,
      ">": 24,
      "A": 25,
      "B": 26,
      "C": 27,
      "D": 28,
      "E": 29,
      "F": 30,
      "G": 31,
      "H": 32,
      "I": 33,
      "J": 34,
      "K": 35,
      "L": 36,
      "M": 37,
      "N": 38,
      "O": 39,
      "P": 40,
      "Q": 41,
      "R": 42,
      "S": 43,
      "T": 44,
      "U": 45,
      "V": 46,
      "W": 47,
      "X": 48,
      "Y": 49,
      "Z": 50,
      "a": 51,
      "b": 52,
      "c": 53,
      "d": 54,
      "e": 55,
      "f": 56,
      "g": 57,
      "h": 58,
      "i": 59,
      "j": 60,
      "k": 61,
      "l": 62,
      "m": 63,
      "n": 64,
      "o": 65,
      "p": 66,
      "q": 67,
      "r": 68,
      "s": 69,
      "t": 70,
      "u": 71,
      "v": 72,
      "w": 73,
      "x": 74,
      "y": 75,
      "z": 76,
      "|": 77,
      "~": 78,
      "¡": 79,
      "¢": 80,
      "£": 81,
      "¤": 82,
      "¥": 83,
      "¦": 84,
      "§": 85,
      "¨": 86,
      "©": 87,
      "ª": 88,
      "«": 89,
      "¬": 90,
      "®": 91,
      "¯": 92,
      "°": 93,
      "±": 94,
      "²": 95,
      "³": 96,
      "´": 97,
      "µ": 98,
      "¶": 99,
      "·": 100,
      "¸": 101,
      "¹": 102,
      "º": 103,
      "»": 104,
      "¼": 105,
      "½": 106,
      "¾": 107,
      "¿": 108,
      "Â": 109,
      "â": 110,
      "ã": 111,
      "ä": 112,
      "å": 113,
      "æ": 114,
      "ç": 115,
      "è": 116,
      "é": 117,
      "ï": 118,
      "Ċ": 119,
      "Ġ": 120,
      "Ģ": 121,
      "ģ": 122,
      "Ĥ": 123,
      "ĥ": 124,
      "Ħ": 125,
      "ħ": 126,
      "Ĩ": 127,
      "ĩ": 128,
      "Ī": 129,
      "ī": 130,
      "Ĭ": 131,
      "ĭ": 132,
      "Į": 133,
      "į": 134,
      "İ": 135,
      "ı": 136,
      "Ĳ": 137,
      "ĳ": 138,
      "Ĵ": 139,
      "ĵ": 140,
      "Ķ": 141,
      "ķ": 142,
      "ĸ": 143,
      "Ĺ": 144,
      "ĺ": 145,
      "Ļ": 146,
      "ļ": 147,
      "Ľ": 148,
      "ľ": 149,
      "Ŀ": 150,
      "ŀ": 151,
      "Ł": 152,
      "ł": 153,
      "Ń": 154,
      "ä¸": 155,
      "ãĢ": 156,
      "ï¼": 157,
      "ãĢĤ": 158,
      "ä»": 159,
      "ï¼Į": 160,
      "äº": 161,
      "çļ": 162,
      "çļĦ": 163,
      "ä¸Ģ": 164,
      "å¥": 165,
      "ä»ĸ": 166,
      "äºĨ": 167,
      "åı": 168,
      "æľ": 169,
      "å¤": 170,
      "İī": 171,
      "åĪ": 172,
      "âĢ": 173,
      "å¥¹": 174,
      "èİī": 175,
      "ä»¬": 176,
      "åľ": 177,
      "åħ": 178,
      "ä½": 179,
      "å®": 180,
      "å¾": 181,
      "å¦": 182,
      "è¿": 183,
      "ä¸ª": 184,
      "æľī": 185,
      "åĪ°": 186,
      "åĲ": 187,
      "åŃ": 188,
      "è¯": 189,
      "å¦Ī": 190,
      "çİ": 191,
      "æĪ": 192,
      "å°": 193,
      "åľ¨": 194,
      "æĺ": 195,
      "ä»ĸä»¬": 196,
      "èµ": 197,
      "åĴ": 198,
      "å¸": 199,
      "çİ©": 200,
      "ä¸Ģä¸ª": 201,
      "åĴĮ": 202,
      "æĿ": 203,
      "å§": 204,
      "çľ": 205,
      "æĺ¯": 206,
      "å¾Ī": 207,
      "âĢľ": 208,
      "âĢĿ": 209,
      "èİīèİī": 210,
      "åĽ": 211,
      "å¤©": 212,
      "å°ı": 213,
      "æĪĳ": 214,
      "çľĭ": 215,
      "ä¹": 216,
      "ä¸į": 217,
      "è¯´": 218,
      "èµ·": 219,
      "å¿": 220,
      "åŃĲ": 221,
      "éĿ": 222,
      "æĥ": 223,
      "çĶ": 224,
      "æī": 225,
      "éĩ": 226,
      "å§Ĩ": 227,
      "å¼": 228,
      "å®ĥ": 229,
      "å¦Īå¦Ī": 230,
      "èĴ": 231,
      "æĿ¥": 232,
      "èĴĤ": 233,
      "åĸ": 234,
      "è¿Ļ": 235,
      "æĹ": 236,
      "éĩĮ": 237,
      "ï¼ļ": 238,
      "å¤§": 239,
      "æĦ": 240,
      "ï¼ļâĢľ": 241,
      "ä»İ": 242,
      "æ¬": 243,
      "ä½ł": 244,
      "ç»": 245,
      "ä¼": 246,
      "çĿ": 247,
      "ï¼ģ": 248,
      "éĤ": 249,
      "åİ": 250,
      "æĥ³": 251,
      "éĤ£": 252,
      "ä½Ĩ": 253,
      "ä¸Ĭ": 254,
      "åĬ": 255,
      "ĥ½": 256,
      "æľīä¸Ģ": 257,
      "æ¬¢": 258,
      "ç±": 259,
      "æĬ": 260,
      "åĸľ": 261,
      "ç±³": 262,
      "å¸¸": 263,
      "çĿĢ": 264,
      "å¥½": 265,
      "å¼Ģ": 266,
      "éĿŀ": 267,
      "éĿŀå¸¸": 268,
      "åıĭ": 269,
      "åĸľæ¬¢": 270,
      "åİ»": 271,
      "en": 272,
      "åŃ©": 273,
      "åıª": 274,
      "do": 275,
      "te": 276,
      "è®": 277,
      "<|": 278,
      "fte": 279,
      "xt": 280,
      "|>": 281,
      "endo": 282,
      "ftext": 283,
      "endoftext": 284,
      "æĸ": 285,
      "åī": 286,
      "åĪ°äºĨ": 287,
      "åı«": 288,
      "å¿ĥ": 289,
      "ĭåıĭ": 290,
      "æľĭåıĭ": 291,
      "æĹ¶": 292,
      "åīį": 293,
      "ãĢĤ<|": 294,
      "éĹ": 295,
      "èĢ": 296,
      "è·": 297,
      "ä¸Ģèµ·": 298,
      "å¾Ĺ": 299,
      "åĨ": 300,
      "å¥¹çļĦ": 301,
      "æĭ": 302,
      "ä»¥": 303,
      "é«": 304,
      "é«ĺ": 305,
      "èĴĤå§Ĩ": 306,
      "åħ´": 307,
      "ãĢĤâĢĿ": 308,
      "æ±": 309,
      "åľ°": 310,
      "å¹": 311,
      "ä»İåīį": 312,
      "éģ": 313,
      "ä¸º": 314,
      "çī": 315,
      "åĲİ": 316,
      "æł": 317,
      "å·": 318,
      "è¦": 319,
      "çĪ": 320,
      "ä¼ļ": 321,
      "è¦ģ": 322,
      "ä»ĸçļĦ": 323,
      "æľīä¸Ģå¤©": 324,
      "åı¯": 325,
      "å½": 326,
      "æ¯": 327,
      "äºº": 328,
      "æĦŁ": 329,
      "æľīä¸Ģä¸ª": 330,
      "ç¬": 331,
      "æĢ": 332,
      "è§": 333,
      "è¿ĩ": 334,
      "è½": 335,
      "é¸": 336,
      "é«ĺåħ´": 337,
      "æķ": 338,
      "åĽŀ": 339,
      "çĦ": 340,
      "éģĵ": 341,
      "åıĳ": 342,
      "çĦ¶": 343,
      "ä¸ĭ": 344,
      "éĥ½": 345,
      "åĩ": 346,
      "èī": 347,
      "å¥³": 348,
      "æĬĬ": 349,
      "çĭ": 350,
      "å¯": 351,
      "æī¾": 352,
      "èĩ": 353,
      "åĳ": 354,
      "åģ": 355,
      "åħ·": 356,
      "æ°": 357,
      "ï¼ģâĢĿ": 358,
      "æ²": 359,
      "é¸Ł": 360,
      "æĪĳä»¬": 361,
      "å¸®": 362,
      "çŁ": 363,
      "æŃ": 364,
      "çİ©åħ·": 365,
      "åı¯ä»¥": 366,
      "å¥³åŃ©": 367,
      "åº": 368,
      "å®¶": 369,
      "ç¬ĳ": 370,
      "ç»Ļ": 371,
      "èĴĤç±³": 372,
      "å½ĵ": 373,
      "æ±¤": 374,
      "æŀ": 375,
      "ä¹Ī": 376,
      "é£": 377,
      "èĩª": 378,
      "æ³": 379,
      "èĥ½": 380,
      "äºĨä¸Ģ": 381,
      "çĲ": 382,
      "¥¿": 383,
      "çİ°": 384,
      "è½¦": 385,
      "çľĭåĪ°": 386,
      "èµ°": 387,
      "å¹¶": 388,
      "æ±¤å§Ĩ": 389,
      "éĿ¢": 390,
      "ä¹Ł": 391,
      "æĦı": 392,
      "è°": 393,
      "çĶ·": 394,
      "ï¼Ł": 395,
      "åį": 396,
      "å°ıå¥³åŃ©": 397,
      "åĲį": 398,
      "è¥¿": 399,
      "åĵ": 400,
      "çĶŁ": 401,
      "çĮ": 402,
      "å¤ļ": 403,
      "è®©": 404,
      "å¿«": 405,
      "åĽŃ": 406,
      "åĩº": 407,
      "äºĭ": 408,
      "è¡": 409,
      "å§ĭ": 410,
      "æĦŁåĪ°": 411,
      "æłĳ": 412,
      "å¤´": 413,
      "èĲ": 414,
      "å¼Ģå§ĭ": 415,
      "åĲįåı«": 416,
      "åĬ©": 417,
      "çĽ": 418,
      "çĭĹ": 419,
      "åħĭ": 420,
      "çŁ¥": 421,
      "ä¸Ģèµ·çİ©": 422,
      "çľĭåĪ°äºĨ": 423,
      "çī©": 424,
      "èī²": 425,
      "äºĽ": 426,
      "è¿Ļä¸ª": 427,
      "ä¸Ģåıª": 428,
      "ï¼ŁâĢĿ": 429,
      "åģļ": 430,
      "è§ī": 431,
      "çĤ": 432,
      "è·ĳ": 433,
      "èĢį": 434,
      "çŁ¥éģĵ": 435,
      "çĲĥ": 436,
      "å¸®åĬ©": 437,
      "éĹ®": 438,
      "åħ¬": 439,
      "å£": 440,
      "å·±": 441,
      "èĩªå·±": 442,
      "çĪ¸": 443,
      "çĶ·åŃ©": 444,
      "æ´": 445,
      "åĿ": 446,
      "æĶ": 447,
      "åĲĥ": 448,
      "æ£": 449,
      "çĤ¹": 450,
      "å¯¹": 451,
      "çĶ¨": 452,
      "ç¾": 453,
      "æĪĲ": 454,
      "æ²¡": 455,
      "çĮ«": 456,
      "è°¢": 457,
      "å¼Ģå¿ĥ": 458,
      "ä¼¤": 459,
      "å¾Īé«ĺåħ´": 460,
      "åĢ": 461,
      "èĬ": 462,
      "å¤ª": 463,
      "æīĢ": 464,
      "èµ·æĿ¥": 465,
      "äºĨä¸Ģä¸ª": 466,
      "åħ¬åĽŃ": 467,
      "æľĢ": 468,
      "çº": 469,
      "æı": 470,
      "éĢ": 471,
      "èĭ": 472,
      "äºİ": 473,
      "å¨": 474,
      "æ¸": 475,
      "éĻ": 476,
      "æľĭåıĭä»¬": 477,
      "æ°´": 478,
      "è¾": 479,
      "éľ": 480,
      "ä»Ģ": 481,
      "ä»Ģä¹Ī": 482,
      "çİ©èĢį": 483,
      "èĲ¨": 484,
      "åıĳçİ°": 485,
      "æĸ°": 486,
      "æľ¬": 487,
      "åıĪ": 488,
      "ä½Ĩæĺ¯": 489,
      "æĪ¿": 490,
      "çĦ¶åĲİ": 491,
      "è¶": 492,
      "ä¿": 493,
      "çŃ": 494,
      "æıĲ": 495,
      "èĬ±": 496,
      "åĨį": 497,
      "è¯ķ": 498,
      "å¸¦": 499,
      "æ»": 500,
      "å±": 501,
      "æĸ¯": 502,
      "æĳ": 503,
      "éļ": 504,
      "ä½ı": 505,
      "åĲ¬": 506,
      "å¥½çļĦ": 507,
      "ľè¥¿": 508,
      "ä¸ľè¥¿": 509,
      "æ²¡æľī": 510,
      "åĬ¨": 511,
      "é£ŀ": 512,
      "äº®": 513,
      "å®³": 514,
      "ç¾İ": 515,
      "é©": 516,
      "æľīä¸Ģä¸ªå°ıå¥³åŃ©": 517,
      "è·³": 518,
      "ä¹Ĳ": 519,
      "åĽł": 520,
      "åħī": 521,
      "åĳĬ": 522,
      "ç³": 523,
      "éĺ": 524,
      "ç§": 525,
      "åĽłä¸º": 526,
      "æĽ": 527,
      "å°±": 528,
      "æĢķ": 529,
      "éĤ£å¤©": 530,
      "éĽ": 531,
      "åĲĹ": 532,
      "è¿Ľ": 533,
      "æİ": 534,
      "ãĢģ": 535,
      "èĪ": 536,
      "ç©": 537,
      "æĮ": 538,
      "åħĭæĸ¯": 539,
      "é¡": 540,
      "æĻ": 541,
      "å®ī": 542,
      "å¥¹çļĦå¦Īå¦Ī": 543,
      "ãĢĤâĢľ": 544,
      "æĺİ": 545,
      "éĤ£ä¸ª": 546,
      "ç®": 547,
      "æŀľ": 548,
      "çļĦå¦Īå¦Ī": 549,
      "èĢĮ": 550,
      "è¿ĺ": 551,
      "å¾Ĺå¾Ī": 552,
      "ä¸Ģå¤©": 553,
      "åĪ«": 554,
      "å£°": 555,
      "æīĭ": 556,
      "å®ĥä»¬": 557,
      "æ¯ı": 558,
      "æĥħ": 559,
      "æīĵ": 560,
      "æ¼": 561,
      "æĶ¾": 562,
      "éķ": 563,
      "çª": 564,
      "æĭ¿": 565,
      "è¯ī": 566,
      "èĭı": 567,
      "åĳĬè¯ī": 568,
      "çļĦè": 569,
      "åĦ": 570,
      "åĦ¿": 571,
      "åĢĻ": 572,
      "æľīä¸Ģä¸ªå°ıå¥³åŃ©åı«": 573,
      "éĿŀå¸¸é«ĺåħ´": 574,
      "æĹ¶åĢĻ": 575,
      "ä¼¤å¿ĥ": 576,
      "æıĲç±³": 577,
      "å°ıçĶ·åŃ©": 578,
      "å®ļ": 579,
      "åĨ³": 580,
      "æĽ´": 581,
      "é©¬": 582,
      "ä¸Ń": 583,
      "æµ": 584,
      "éĹ´": 585,
      "ç¬ĳçĿĢ": 586,
      "å®³æĢķ": 587,
      "åıĺ": 588,
      "å¤ĸ": 589,
      "å¥¹åĸľæ¬¢": 590,
      "çģ": 591,
      "å°ıé¸Ł": 592,
      "è¡Į": 593,
      "æľīä¸Ģåıª": 594,
      "é¼": 595,
      "ä»İéĤ£å¤©": 596,
      "éļ¾": 597,
      "äº«": 598,
      "åĨ³å®ļ": 599,
      "åŃ¦": 600,
      "äºĭæĥħ": 601,
      "æ°Ķ": 602,
      "åĲ§": 603,
      "æĬ±": 604,
      "è´": 605,
      "æ¸¸": 606,
      "ç´": 607,
      "æľīä¸Ģä¸ªå°ıå¥³åŃ©åı«èİīèİī": 608,
      "åĽ¾": 609,
      "åĪĨ": 610,
      "èĽ": 611,
      "çĪ¸çĪ¸": 612,
      "è¿Ļåıª": 613,
      "æ¯Ķ": 614,
      "æł·": 615,
      "çĶ»": 616,
      "åŃĲéĩĮ": 617,
      "åĲĳ": 618,
      "åĮ": 619,
      "å¾Īå¤ļ": 620,
      "çĥ": 621,
      "é¢": 622,
      "çªģ": 623,
      "æĭī": 624,
      "æķ´": 625,
      "éķ¿": 626,
      "çªģçĦ¶": 627,
      "äºİæĺ¯": 628,
      "ä»İéĤ£å¤©èµ·": 629,
      "çŃĶ": 630,
      "èĢģ": 631,
      "åĪ©": 632,
      "è¯Ŀ": 633,
      "è¶£": 634,
      "æĥĬ": 635,
      "æīĢä»¥": 636,
      "å°ıå¿ĥ": 637,
      "å¿«ä¹Ĳ": 638,
      "ä¸»": 639,
      "ä¸ĭæĿ¥": 640,
      "æĢ»": 641,
      "èĻ": 642,
      "è£": 643,
      "åĴĮä»ĸçļĦ": 644,
      "åĽŀå®¶": 645,
      "æ¯Ľ": 646,
      "è¢": 647,
      "èī²çļĦ": 648,
      "æĪĳçļĦ": 649,
      "èĲ¨å§Ĩ": 650,
      "å¤§çļĦ": 651,
      "è§īå¾Ĺ": 652,
      "éŁ": 653,
      "æ¼Ĥ": 654,
      "é¥": 655,
      "åİ»äºĨ": 656,
      "éŁ³": 657,
      "åĭ": 658,
      "æĸ¹": 659,
      "éĹª": 660,
      "çľĭçĿĢ": 661,
      "çº¢": 662,
      "æľĽ": 663,
      "ĨĬ": 664,
      "å¤ĸéĿ¢": 665,
      "éĴ": 666,
      "ç¬ĳäºĨ": 667,
      "æ¼Ĥäº®": 668,
      "ä½ľ": 669,
      "å¦Ĥ": 670,
      "å¹²": 671,
      "æį": 672,
      "ç¿": 673,
      "èĦ": 674,
      "åº¦": 675,
      "ä¸įåĪ°": 676,
      "éļ¾è¿ĩ": 677,
      "æĪĲä¸º": 678,
      "æ¬¡": 679,
      "åķ": 680,
      "å¥¹è¯´": 681,
      "éľĢ": 682,
      "åĪĨäº«": 683,
      "è¯¥": 684,
      "ç¦": 685,
      "æĢ»æĺ¯": 686,
      "ä¸ĢäºĽ": 687,
      "æŃ£": 688,
      "éľĢè¦ģ": 689,
      "çĪ±": 690,
      "çĨĬ": 691,
      "éĺ³": 692,
      "ç»ĵ": 693,
      "æľīè¶£": 694,
      "æī¾åĪ°": 695,
      "çļĦäºĭæĥħ": 696,
      "çī¹": 697,
      "æ¯ıå¤©": 698,
      "æĸĳ": 699,
      "å¥ĭ": 700,
      "æ¢": 701,
      "åħ´å¥ĭ": 702,
      "èº": 703,
      "éĩį": 704,
      "å¥ĩ": 705,
      "æ·": 706,
      "åľ¨ä¸Ģä¸ª": 707,
      "èĩªå·±çļĦ": 708,
      "é±": 709,
      "èİīèİīåĴĮ": 710,
      "é±¼": 711,
      "ä¿Ŀ": 712,
      "å¾Īä¼¤å¿ĥ": 713,
      "åĬ¨çī©": 714,
      "æī¾åĪ°äºĨ": 715,
      "åĽŀçŃĶ": 716,
      "åħĶ": 717,
      "åıĳçĶŁ": 718,
      "å¥¶": 719,
      "åħĶåŃĲ": 720,
      "ä¸įçŁ¥éģĵ": 721,
      "ä¸½": 722,
      "èĿ": 723,
      "çŁ³": 724,
      "ç®±": 725,
      "éĤ£éĩĮ": 726,
      "æģ": 727,
      "éº": 728,
      "åľ¨åħ¬åĽŃ": 729,
      "æĿ¡": 730,
      "é©¬åħĭæĸ¯": 731,
      "ç¤": 732,
      "ä»ĸä»¬éĥ½": 733,
      "ä½łçļĦ": 734,
      "éľ²": 735,
      "æĻļ": 736,
      "æİī": 737,
      "æĭ¥": 738,
      "é¼ł": 739,
      "æĥ³è¦ģ": 740,
      "éª": 741,
      "åĳ³": 742,
      "åıĹ": 743,
      "å¾Ĺå¾Īå¼Ģå¿ĥ": 744,
      "åĬĽ": 745,
      "åħ³": 746,
      "çļĦå°ı": 747,
      "è¿Ļæĺ¯": 748,
      "æīĢæľī": 749,
      "æ£µ": 750,
      "æĦŁè§ī": 751,
      "è¾¹": 752,
      "è±": 753,
      "ç©º": 754,
      "å¨ĥ": 755,
      "æŁ": 756,
      "è¯ķåĽ¾": 757,
      "éº¦": 758,
      "é²": 759,
      "å¦Īå¦Īè¯´": 760,
      "å¾®": 761,
      "ç¬ĳçĿĢè¯´": 762,
      "æĢİ": 763,
      "æŀĹ": 764,
      "è®¸": 765,
      "å¥¹åľ¨": 766,
      "æĢİä¹Ī": 767,
      "èľ": 768,
      "æĪ¿éĹ´": 769,
      "é£Ł": 770,
      "æľº": 771,
      "ä½łä»¬": 772,
      "å®Į": 773,
      "æ³ķ": 774,
      "è°¢è°¢": 775,
      "ç»Ń": 776,
      "èį": 777,
      "çļĦä¸ľè¥¿": 778,
      "ç»§": 779,
      "æĸĳçĤ¹": 780,
      "ç»§ç»Ń": 781,
      "åº¦è¿ĩ": 782,
      "ä¸įæĥ³": 783,
      "é¸ŁåĦ¿": 784,
      "ç¥": 785,
      "ä»ĸä»¬åľ¨": 786,
      "åħ¨": 787,
      "çľŁ": 788,
      "æ±½": 789,
      "å¤Ħ": 790,
      "åıĺå¾Ĺ": 791,
      "èī¾": 792,
      "æķħ": 793,
      "è¿ĳ": 794,
      "æĹł": 795,
      "å°¼": 796,
      "åı£": 797,
      "åľ¨åħ¬åĽŃéĩĮ": 798,
      "éľ²è¥¿": 799,
      "çļĦæĹ¶åĢĻ": 800,
      "çľĭèµ·æĿ¥": 801,
      "ä½ķ": 802,
      "çİ°åľ¨": 803,
      "åħ¶": 804,
      "èĥ": 805,
      "çĪ¬": 806,
      "Ma": 807,
      "æķ´å¤©": 808,
      "æ±½è½¦": 809,
      "æ»ĳ": 810,
      "Max": 811,
      "åĵŃ": 812,
      "åľ°ä¸Ĭ": 813,
      "ä»ĸä»¬çļĦ": 814,
      "åĿĲ": 815,
      "çĻ": 816,
      "ä¹¦": 817,
      "é»": 818,
      "è·¯": 819,
      "å¾ħ": 820,
      "ä»¶": 821,
      "èģ": 822,
      "åĥ": 823,
      "ä»ĸè¯´": 824,
      "çŁ³å¤´": 825,
      "æľ¨": 826,
      "èµ°äºĨ": 827,
      "åĥı": 828,
      "è§ģ": 829,
      "æĪı": 830,
      "æĬĵ": 831,
      "å°Ŀ": 832,
      "éĤ£æĺ¯": 833,
      "æŃ¥": 834,
      "ç²": 835,
      "æīĵå¼Ģ": 836,
      "é£İ": 837,
      "éĵ": 838,
      "æļ": 839,
      "ä»ĸæĥ³": 840,
      "å½ĵä»ĸä»¬": 841,
      "åĬł": 842,
      "éº¦åħĭæĸ¯": 843,
      "è¿ľ": 844,
      "æľīä¸Ģä¸ªå°ıçĶ·åŃ©": 845,
      "ç«": 846,
      "åºĶ": 847,
      "çĻ½": 848,
      "ä¸Ģä¸ªå¤§": 849,
      "æĬĬå®ĥ": 850,
      "æĭ¥æĬ±": 851,
      "åĲĮ": 852,
      "éĻ©": 853,
      "å£°éŁ³": 854,
      "ä¸ĬäºĨ": 855,
      "çĽ´": 856,
      "èİīèİīçļĦå¦Īå¦Ī": 857,
      "è®°": 858,
      "çķ": 859,
      "çīĩ": 860,
      "åģľ": 861,
      "ç»ĻäºĨ": 862,
      "çģ«": 863,
      "å¨ľ": 864,
      "åŃ©åŃĲ": 865,
      "å±±": 866,
      "ç³ķ": 867,
      "è®¶": 868,
      "æĥĬè®¶": 869,
      "æĪĲä¸ºäºĨ": 870,
      "åį¡": 871,
      "ç¦»": 872,
      "ç©¿": 873,
      "æķħäºĭ": 874,
      "åľ°æĸ¹": 875,
      "æ»¡": 876,
      "éĶ": 877,
      "æĿ°": 878,
      "éĿŀå¸¸å¼Ģå¿ĥ": 879,
      "è¯·": 880,
      "ly": 881,
      "æŃ¤": 882,
      "æ¡": 883,
      "çľĭçľĭ": 884,
      "çĿ¡": 885,
      "é¹": 886,
      "åĿĹ": 887,
      "èĻ«": 888,
      "åĸĦ": 889,
      "è£ħ": 890,
      "ç´§": 891,
      "æµ·": 892,
      "æĦŁè°¢": 893,
      "å®īåħ¨": 894,
      "æľµ": 895,
      "çĽ¸": 896,
      "ç¢": 897,
      "çħ": 898,
      "è¢«": 899,
      "åĴĮå¥¹çļĦ": 900,
      "åĸľæ¬¢åľ¨": 901,
      "åľº": 902,
      "ç¡": 903,
      "å¯»": 904,
      "åºĹ": 905,
      "å¼ł": 906,
      "æ¸¸æĪı": 907,
      "æĹ¥": 908,
      "éĹ¨": 909,
      "çİ©å¾Ĺå¾Īå¼Ģå¿ĥ": 910,
      "å¥¹æĥ³": 911,
      "ä½Ĩä»ĸ": 912,
      "é¦": 913,
      "çĲĨ": 914,
      "®æŀĹ": 915,
      "æĿ¾": 916,
      "æľĢå¥½çļĦ": 917,
      "é¡»": 918,
      "çļĦå¤§": 919,
      "åĶ": 920,
      "æ£®æŀĹ": 921,
      "åĽŀåĪ°": 922,
      "å¿ħ": 923,
      "ä¹°": 924,
      "æĪĳä»¬åı¯ä»¥": 925,
      "æ´»": 926,
      "è¾Ĩ": 927,
      "çĶµ": 928,
      "æħ": 929,
      "éĤ£åıª": 930,
      "è°¢è°¢ä½ł": 931,
      "æľīä¸Ģä¸ªå°ıçĶ·åŃ©åı«": 932,
      "å¡": 933,
      "èĽĭ": 934,
      "ç¾İä¸½": 935,
      "åĩºæĿ¥": 936,
      "æĭħ": 937,
      "èº«": 938,
      "çļĦæľĭåıĭ": 939,
      "èĪŀ": 940,
      "çļĦçİ©åħ·": 941,
      "æŃĮ": 942,
      "å®īå¨ľ": 943,
      "å¿ħé¡»": 944,
      "å¸Į": 945,
      "å¾Īå®³æĢķ": 946,
      "è¿ĩæĿ¥": 947,
      "å¸ĮæľĽ": 948,
      "èĹ": 949,
      "ä¸įåĨį": 950,
      "è´Ŀ": 951,
      "å®Ŀ": 952,
      "å¸¦çĿĢ": 953,
      "æĿŁ": 954,
      "æĳĩ": 955,
      "ä¸Ģä¸ªåĲįåı«": 956,
      "ä»ĸä»¬ä¸Ģèµ·": 957,
      "éħ": 958,
      "æİ¥": 959,
      "å¤©ç©º": 960,
      "ä»ĸåľ¨": 961,
      "éĿŀå¸¸åħ´å¥ĭ": 962,
      "æĶ¶": 963,
      "å¿Ļ": 964,
      "ç»ı": 965,
      "åł": 966,
      "ä¸»æĦı": 967,
      "å°Ŀè¯ķ": 968,
      "ä¹ĭ": 969,
      "æŃ£åľ¨": 970,
      "è¿ª": 971,
      "è¯Ĩ": 972,
      "ç»ĵæĿŁ": 973,
      "æĿ°åħĭ": 974,
      "éĺ³åħī": 975,
      "ĵĿ": 976,
      "éĩĮéĿ¢": 977,
      "ç¾İåĳ³": 978,
      "æĪĳä¼ļ": 979,
      "åħĪ": 980,
      "æľĢåĲİ": 981,
      "æĭħå¿ĥ": 982,
      "é£Łçī©": 983,
      "çĶ·äºº": 984,
      "èļ": 985,
      "åĨ°": 986,
      "ä½¿": 987,
      "éĥ½ä¼ļ": 988,
      "èĬ±åĽŃ": 989,
      "å¾Īéļ¾è¿ĩ": 990,
      "éĩįè¦ģ": 991,
      "çŃī": 992,
      "èİ": 993,
      "ä¸Ķ": 994,
      "æķ£": 995,
      "è¶Ĭ": 996,
      "èµ°åĪ°": 997,
      "çł": 998,
      "åº¦è¿ĩäºĨ": 999,
      "èİīèİīè¯´": 1000,
      "Ĥ²": 1001,
      "æľį": 1002,
      "æ³¢": 1003,
      "æķ¢": 1004,
      "è·Ł": 1005,
      "ä¸įæĺ¯": 1006,
      "çĽĴ": 1007,
      "èĪ¹": 1008,
      "åħ¶ä»ĸ": 1009,
      "è¡£": 1010,
      "éĽ¨": 1011,
      "èĹı": 1012,
      "æłĳä¸Ĭ": 1013,
      "ä¸įèĥ½": 1014,
      "çħ§": 1015,
      "åĲ¬åĪ°": 1016,
      "å½©": 1017,
      "å·¨": 1018,
      "ä¸Ģèµ·çİ©èĢį": 1019,
      "ily": 1020,
      "åıĳçİ°äºĨä¸Ģä¸ª": 1021,
      "ç½": 1022,
      "åĶ±": 1023,
      "æĹ¶åħī": 1024,
      "Lily": 1025,
      "æķĻ": 1026,
      "é²į": 1027,
      "é¥¼": 1028,
      "èī¾ç±³": 1029,
      "åĬŀ": 1030,
      "çľĭåĪ°ä¸Ģ": 1031,
      "è¡¨": 1032,
      "èĵĿ": 1033,
      "æĺŁ": 1034,
      "è§£": 1035,
      "æ¯į": 1036,
      "ä½į": 1037,
      "ç§į": 1038,
      "ĻåŃĲ": 1039,
      "æ¤": 1040,
      "åıĳçĶŁäºĨ": 1041,
      "æł¹": 1042,
      "å·¥": 1043,
      "åĭĥ": 1044,
      "ç¤º": 1045,
      "æĬĵä½ı": 1046,
      "å¼Ħ": 1047,
      "èĿ¶": 1048,
      "é²įåĭĥ": 1049,
      "ä»ĸçļĦæľĭåıĭ": 1050,
      "ä¿¡": 1051,
      "´èĿ¶": 1052,
      "åĢĴ": 1053,
      "å»": 1054,
      "èī¯": 1055,
      "çº¸": 1056,
      "æĺİçĻ½": 1057,
      "æľīå¾Īå¤ļ": 1058,
      "åĲ¦": 1059,
      "åıĳçİ°äºĨä¸Ģ": 1060,
      "éĿŀå¸¸åĸľæ¬¢": 1061,
      "æĶ¾åľ¨": 1062,
      "æ¢¯": 1063,
      "åĸĦèī¯": 1064,
      "çĶŁæ°Ķ": 1065,
      "æķ£æŃ¥": 1066,
      "éĻ¢": 1067,
      "ç±³å¨": 1068,
      "ç±³å¨ħ": 1069,
      "èİīèİīçļĦ": 1070,
      "èĴĤå§ĨçļĦ": 1071,
      "æľĢåĸľæ¬¢": 1072,
      "ä¸įè¦ģ": 1073,
      "æį¡": 1074,
      "åĴĮä»ĸçļĦæľĭåıĭä»¬": 1075,
      "æĦıæĥ³": 1076,
      "æĦıæĥ³ä¸įåĪ°": 1077,
      "æ¶": 1078,
      "å·´": 1079,
      "æ´Ĺ": 1080,
      "èµĽ": 1081,
      "å¯»æī¾": 1082,
      "è¿Ļæł·": 1083,
      "ä½Ĩå¥¹": 1084,
      "åĿı": 1085,
      "éģĩ": 1086,
      "åĮħ": 1087,
      "æĪĳåı¯ä»¥": 1088,
      "èĴĤå§ĨåĴĮ": 1089,
      "éļı": 1090,
      "ĭåŃĲ": 1091,
      "å¸®å¿Ļ": 1092,
      "ä¿®": 1093,
      "ä»ĸåĸľæ¬¢": 1094,
      "åķĨ": 1095,
      "è®¸å¤ļ": 1096,
      "åĹ": 1097,
      "åĻ": 1098,
      "ä»ĸçļĦå¦Īå¦Ī": 1099,
      "åĽŀæĿ¥": 1100,
      "¤Ĳ": 1101,
      "å¤±": 1102,
      "æĲ": 1103,
      "é¤Ĳ": 1104,
      "æľĢå¥½çļĦæľĭåıĭ": 1105,
      "æ£®æŀĹéĩĮ": 1106,
      "åı¯èĥ½": 1107,
      "èĽĭç³ķ": 1108,
      "ç¦»å¼Ģ": 1109,
      "½åŃĲ": 1110,
      "ä¸Ģæł·": 1111,
      "å»º": 1112,
      "èĤ": 1113,
      "èĲ¨æĭī": 1114,
      "æĺ¯åĲ¦": 1115,
      "åĩºåİ»": 1116,
      "å°½": 1117,
      "äºĨä¸Ģä¸ĭ": 1118,
      "ä¸ºä»Ģä¹Ī": 1119,
      "åŃ¦ä¼ļ": 1120,
      "çļĦåľ°æĸ¹": 1121,
      "åĺ": 1122,
      "å¹¸": 1123,
      "īå¿«": 1124,
      "ä¸Ģä¸ĭ": 1125,
      "åĭĩ": 1126,
      "æĺ¯ä¸Ģä¸ª": 1127,
      "æĦıè¯Ĩ": 1128,
      "åķĨåºĹ": 1129,
      "åĸĬ": 1130,
      "åĵį": 1131,
      "æĦıæĥ³ä¸įåĪ°çļĦäºĭæĥħ": 1132,
      "ç³ĸ": 1133,
      "ç¡®": 1134,
      "æĦıè¯ĨåĪ°": 1135,
      "ä»»": 1136,
      "çī¹åĪ«": 1137,
      "æĥ³åĴĮ": 1138,
      "è®©æĪĳä»¬": 1139,
      "æľīä¸ĢåıªåĲįåı«": 1140,
      "ªæĺİ": 1141,
      "åŁ": 1142,
      "äºĨä¸ĢäºĽ": 1143,
      "éĹ®éģĵ": 1144,
      "åľ¨å¤ĸéĿ¢": 1145,
      "å®¶äºº": 1146,
      "æ±Ĥ": 1147,
      "æĪ¿åŃĲ": 1148,
      "æ¯ĶèµĽ": 1149,
      "æĦīå¿«": 1150,
      "åİ»æī¾": 1151,
      "åİ»åħ¬åĽŃ": 1152,
      "èĢģé¼ł": 1153,
      "å¦Ĥä½ķ": 1154,
      "å¤Ł": 1155,
      "å¨ĥå¨ĥ": 1156,
      "èįī": 1157,
      "èĲ½": 1158,
      "åĨĴ": 1159,
      "åķĬ": 1160,
      "å¥½æľĭåıĭ": 1161,
      "åºĶè¯¥": 1162,
      "çĸ": 1163,
      "ä¸įåĸľæ¬¢": 1164,
      "åŃĲä¸Ĭ": 1165,
      "æĮģ": 1166,
      "æ´ŀ": 1167,
      "æľīæĹ¶åĢĻ": 1168,
      "çľ¼": 1169,
      "å¼Ł": 1170,
      "å½ĵå¥¹": 1171,
      "è¾¾": 1172,
      "åĭĩæķ¢": 1173,
      "å¾Īå¿«": 1174,
      "è½»": 1175,
      "çļĦè¯Ŀ": 1176,
      "åıĬ": 1177,
      "çĶŁæ´»": 1178,
      "çĽ´åĪ°": 1179,
      "æĪĲäºĨ": 1180,
      "æĪ´": 1181,
      "çľĭäºĨ": 1182,
      "ç»Ļå¥¹": 1183,
      "æ¼Ĥäº®çļĦ": 1184,
      "å·²": 1185,
      "æľ¬å°¼": 1186,
      "®åŃĲ": 1187,
      "å±ķ": 1188,
      "æĵ": 1189,
      "åĲ¹": 1190,
      "å¤§å®¶": 1191,
      "å¼º": 1192,
      "åį¡è½¦": 1193,
      "å£«": 1194,
      "èĮ": 1195,
      "åĪ¶": 1196,
      "èģªæĺİ": 1197,
      "é¾": 1198,
      "çīĽ": 1199,
      "åĪ°äºĨä¸Ģä¸ª": 1200,
      "é¡¶": 1201,
      "åĽ´": 1202,
      "èĿ´èĿ¶": 1203,
      "å¤ªéĺ³": 1204,
      "æĹ¶éĹ´": 1205,
      "æĸ°æľĭåıĭ": 1206,
      "æ±¤å§ĨåĴĮ": 1207,
      "æİ¢": 1208,
      "æ±ł": 1209,
      "çľĭåĪ°ä¸Ģåıª": 1210,
      "åĳĬè¯īå¥¹": 1211,
      "æĳ¸": 1212,
      "ç§ĭ": 1213,
      "çĵ": 1214,
      "è¿ĻäºĽ": 1215,
      "å®ŀ": 1216,
      "ç¬Ķ": 1217,
      "çľĭåĪ°ä¸Ģä¸ª": 1218,
      "æİ¨": 1219,
      "æĺ¯çļĦ": 1220,
      "é¥¼å¹²": 1221,
      "éĻĦ": 1222,
      "äº¤": 1223,
      "éĻĦè¿ĳ": 1224,
      "æ³°": 1225,
      "ä»į": 1226,
      "åĿĲåľ¨": 1227,
      "çł´": 1228,
      "æ¹": 1229,
      "åĨįä¹Ł": 1230,
      "åįĥ": 1231,
      "ä½łåı¯ä»¥": 1232,
      "è¿·": 1233,
      "åĽĽ": 1234,
      "ä»įçĦ¶": 1235,
      "åĤ²": 1236,
      "çĭ¬": 1237,
      "åŃ¦ä¼ļäºĨ": 1238,
      "äºļ": 1239,
      "æ¸©": 1240,
      "ĦåĤ²": 1241,
      "éªĦåĤ²": 1242,
      "çĿ¡è§ī": 1243,
      "æ³°è¿ª": 1244,
      "ç¬¬": 1245,
      "æĢª": 1246,
      "æĪ¿åŃĲéĩĮ": 1247,
      "ç®±åŃĲ": 1248,
      "ç§ĭåįĥ": 1249,
      "ä¸¤": 1250,
      "âĢĶ": 1251,
      "åĨĴéĻ©": 1252,
      "å¿«ä¹ĲçļĦ": 1253,
      "æļĸ": 1254,
      "çı": 1255,
      "æĽ´å¤ļ": 1256,
      "å¥¹ä»¬": 1257,
      "çĤ¹å¤´": 1258,
      "å®ĥçļĦ": 1259,
      "è¯¥æĢİä¹Ī": 1260,
      "å¤ĩ": 1261,
      "å¸½åŃĲ": 1262,
      "çº¢èī²çļĦ": 1263,
      "åĵĩ": 1264,
      "æĿ¾é¼ł": 1265,
      "èĬ±åĽŃéĩĮ": 1266,
      "åĪ«äºº": 1267,
      "å½ĵä»ĸ": 1268,
      "åħ¥": 1269,
      "ç¤¼": 1270,
      "éĿĴ": 1271,
      "æĦŁè§īå¥½": 1272,
      "¹æŀľ": 1273,
      "è·³èĪŀ": 1274,
      "èĽĻ": 1275,
      "ä¸ī": 1276,
      "çļ®": 1277,
      "åĽłä¸ºä»ĸ": 1278,
      "åĪ«æĭħå¿ĥ": 1279,
      "æ©": 1280,
      "æĿ¿": 1281,
      "ŃåŃĲ": 1282,
      "è®©å¥¹": 1283,
      "é»ĳ": 1284,
      "çĪ¶": 1285,
      "å¾Īå¥½": 1286,
      "å¥¹çļĦæľĭåıĭ": 1287,
      "å±ķç¤º": 1288,
      "åĨ·": 1289,
      "åĩĨ": 1290,
      "åħ³äºİ": 1291,
      "åĴĮå¦Īå¦Ī": 1292,
      "æ¯ĶåĪ©": 1293,
      "æīĢæľīçļĦ": 1294,
      "ç¾İä¸½çļĦ": 1295,
      "åıĳåħī": 1296,
      "éĢŁ": 1297,
      "æĳĶ": 1298,
      "åİ»äºĨåħ¬åĽŃ": 1299,
      "èı": 1300,
      "æ£Ĵ": 1301,
      "é¢Ĺ": 1302,
      "ä¸įèµ·": 1303,
      "ç¥ŀ": 1304,
      "èµ·äºĨ": 1305,
      "¢äºĨ": 1306,
      "ä¼ļåĦ¿": 1307,
      "æķĳ": 1308,
      "æ¯ıå¤©éĥ½": 1309,
      "ç®¡": 1310,
      "å½ĵçĦ¶": 1311,
      "ä¸ĢåıªåĲįåı«": 1312,
      "äºĮ": 1313,
      "çķĻ": 1314,
      "å¤§æłĳ": 1315,
      "åĩĢ": 1316,
      "æ³¨": 1317,
      "ä¸įä¼ļ": 1318,
      "æ²Ļ": 1319,
      "åĽ°": 1320,
      "æī¾ä¸įåĪ°": 1321,
      "å¿ĺ": 1322,
      "éĿĴèĽĻ": 1323,
      "çļĦäºº": 1324,
      "åı¶": 1325,
      "è¿ĽäºĨ": 1326,
      "çĽĴåŃĲ": 1327,
      "åĩĨå¤ĩ": 1328,
      "åľ¨ä¸Ģèµ·": 1329,
      "é¥Ń": 1330,
      "æŀ¶": 1331,
      "é¢ľ": 1332,
      "è¯¥æĢİä¹ĪåĬŀ": 1333,
      "ç²ī": 1334,
      "ä½łå¥½": 1335,
      "è·ĳåĪ°": 1336,
      "æ»ĳæ¢¯": 1337,
      "åŁİ": 1338,
      "åºĬ": 1339,
      "å¹²åĩĢ": 1340,
      "tt": 1341,
      "æĪĳæĥ³": 1342,
      "ä»»ä½ķ": 1343,
      "ç±³äºļ": 1344,
      "è±ª": 1345,
      "æĹłæ³ķ": 1346,
      "ç»¿": 1347,
      "èĻ«åŃĲ": 1348,
      "åİ¨": 1349,
      "é¸ŃåŃĲ": 1350,
      "ä»ĸçļĦæľĭåıĭä»¬": 1351,
      "ä¿ĿæĮģ": 1352,
      "ªåĬĽ": 1353,
      "åĬªåĬĽ": 1354,
      "èĭ¹æŀľ": 1355,
      "åĴª": 1356,
      "åº§": 1357,
      "åĨįæ¬¡": 1358,
      "äº®çļĦ": 1359,
      "çľĭåĪ°äºĨä¸Ģ": 1360,
      "å·¥ä½ľ": 1361,
      "ä¹Łå¾Ī": 1362,
      "ä»ĸçļĦçİ©åħ·": 1363,
      "åĮ»": 1364,
      "æ´ĭ": 1365,
      "æİ¥çĿĢ": 1366,
      "åĴĮçĪ¸çĪ¸": 1367,
      "æŃī": 1368,
      "æľīä¸Ģä¸ªå°ıçĶ·åŃ©åı«èĴĤç±³": 1369,
      "æħ¢": 1370,
      "ä¸İ": 1371,
      "¿Ģ": 1372,
      "æ¿Ģ": 1373,
      "å¯¹ä¸įèµ·": 1374,
      "çĮ«åĴª": 1375,
      "éĿŀå¸¸ä¼¤å¿ĥ": 1376,
      "å·²ç»ı": 1377,
      "èĩªè±ª": 1378,
      "æ°¸": 1379,
      "çĹ": 1380,
      "ç¾İåĳ³çļĦ": 1381,
      "ç¨": 1382,
      "å¤©ç©ºä¸Ń": 1383,
      "èĦı": 1384,
      "åĵª": 1385,
      "ä¾": 1386,
      "å¹¶ä¸į": 1387,
      "åİ¨æĪ¿": 1388,
      "æĺİçĻ½äºĨ": 1389,
      "æ´¾": 1390,
      "æ³¨æĦı": 1391,
      "çĿĽ": 1392,
      "åĪ°è¾¾": 1393,
      "æľīä¸Ģä¸ªå¤§": 1394,
      "æģ¯": 1395,
      "çľ¼çĿĽ": 1396,
      "åĽĽå¤Ħ": 1397,
      "åĲĥäºĨ": 1398,
      "åĲī": 1399,
      "æĸ°çļĦ": 1400,
      "æĳĺ": 1401,
      "ç¼": 1402,
      "ä½łèĥ½": 1403,
      "æ°¸è¿ľ": 1404,
      "ç³»": 1405,
      "åıĭå¥½": 1406,
      "åĲįåı«èİīèİī": 1407,
      "è½¬": 1408,
      "ãĢĤ\"": 1409,
      "è®¤": 1410,
      "éĹªéĹª": 1411,
      "ç¬¬äºĮ": 1412,
      "çĥŃ": 1413,
      "æİīäºĨ": 1414,
      "åıĹä¼¤": 1415,
      "åıĳåĩº": 1416,
      "æīĶ": 1417,
      "åĽłä¸ºå¥¹": 1418,
      "é¾Ļ": 1419,
      "éĿĻ": 1420,
      "æ®": 1421,
      "åŃĹ": 1422,
      "çľĭåĪ°äºĨä¸Ģåıª": 1423,
      "å¡ĺ": 1424,
      "åı«åģļ": 1425,
      "ä½Ĩå®ĥ": 1426,
      "itt": 1427,
      "è½¯": 1428,
      "æĭį": 1429,
      "æĪ¿éĹ´éĩĮ": 1430,
      "ç¦ı": 1431,
      "æĥĬåĸľ": 1432,
      "åıªæĺ¯": 1433,
      "éļıåĲİ": 1434,
      "éĢł": 1435,
      "æ¼Ķ": 1436,
      "åĳ¨": 1437,
      "ä¸įçŁ¥éģĵè¯¥æĢİä¹ĪåĬŀ": 1438,
      "æĦīå¿«çļĦ": 1439,
      "çľĭåĪ°äºĨä¸Ģä¸ª": 1440,
      "çļĦçĭĹ": 1441,
      "åĪĩ": 1442,
      "ä¸ĬéĿ¢": 1443,
      "è¿Ļä¸ªæķħäºĭ": 1444,
      "ç¬¬äºĮå¤©": 1445,
      "åĲĪ": 1446,
      "åľ¨è¿Ļ": 1447,
      "åĽŀåĪ°äºĨ": 1448,
      "åĽŀå®¶äºĨ": 1449,
      "éĿł": 1450,
      "è±¡": 1451,
      "å¾®ç¬ĳçĿĢè¯´": 1452,
      "åģĩ": 1453,
      "åħĪçĶŁ": 1454,
      "éĹªéĹªåıĳåħī": 1455,
      "æĭ¾": 1456,
      "æ¢¦": 1457,
      "æĴ": 1458,
      "æ³£": 1459,
      "ä½ıåľ¨ä¸Ģä¸ª": 1460,
      "æ±łå¡ĺ": 1461,
      "çĭ®åŃĲ": 1462,
      "å¥¹éĹ®": 1463,
      "å¸ĥ": 1464,
      "çİ©çİ©åħ·": 1465,
      "æĺ¯ä¸ª": 1466,
      "åİŁ": 1467,
      "è¸": 1468,
      "éŃ": 1469,
      "åĲ¬åĪ°äºĨ": 1470,
      "å½ĵçĦ¶åı¯ä»¥": 1471,
      "å¹¸ç¦ı": 1472,
      "Ĭå¤©": 1473,
      "å±ĭ": 1474,
      "æ·ĭ": 1475,
      "é¦Ļ": 1476,
      "æĶ¶æĭ¾": 1477,
      "å¸Ī": 1478,
      "æ³³": 1479,
      "ç»Ī": 1480,
      "åĵŃæ³£": 1481,
      "æľĢåĸľæ¬¢çļĦ": 1482,
      "èĨ": 1483,
      "æĻļä¸Ĭ": 1484,
      "âĢĿï¼Į": 1485,
      "å½¢": 1486,
      "æĭ¥æĬ±äºĨ": 1487,
      "å¥½äºĨ": 1488,
      "å¤§å®¶éĥ½": 1489,
      "çĪ¶æ¯į": 1490,
      "èĩ³": 1491,
      "æľīè¶£çļĦ": 1492,
      "è¿Ļä¹Ī": 1493,
      "å¤ļäºĨ": 1494,
      "åŃ©åŃĲä»¬": 1495,
      "åŀ": 1496,
      "è¯´è¯Ŀ": 1497,
      "æĹģ": 1498,
      "åı¯çĪ±": 1499,
      "éĽª": 1500,
      "çº¢èī²": 1501,
      "å¥¶å¥¶": 1502,
      "æĦ¿": 1503,
      "ç³ĸæŀľ": 1504,
      "åĴĮæľĭåıĭä»¬": 1505,
      "éĨ": 1506,
      "åĲĮæĦı": 1507,
      "éĨĴ": 1508,
      "å°ıçĭĹ": 1509,
      "æĬ¤": 1510,
      "ç¡®ä¿Ŀ": 1511,
      "æŀĿ": 1512,
      "åĶ±æŃĮ": 1513,
      "éĴ±": 1514,
      "è¡£æľį": 1515,
      "åĻ¨": 1516,
      "èĲ¨åĪ©": 1517,
      "èĪĴ": 1518,
      "è¿ĺæĺ¯": 1519,
      "åĨľ": 1520,
      "æĵ¦": 1521,
      "æķ°": 1522,
      "å¸®ä½ł": 1523,
      "æĮī": 1524,
      "ä¸įå°ıå¿ĥ": 1525,
      "è®©ä»ĸ": 1526,
      "å¹³": 1527,
      "ä¸»äºº": 1528,
      "æ¶Ī": 1529,
      "ä½ĨéļıåĲİ": 1530,
      "ä¹ł": 1531,
      "éĢĤ": 1532,
      "å¦Ĥæŀľ": 1533,
      "çľĭäºĨçľĭ": 1534,
      "å¾Īé«ĺåħ´èĥ½": 1535,
      "ç´¢": 1536,
      "åĵªéĩĮ": 1537,
      "å¥¹çļĦæľĭåıĭä»¬": 1538,
      "æĮĩ": 1539,
      "æŁĶ": 1540,
      "äºĨä¸Ģä¼ļåĦ¿": 1541,
      "æ¸¸æ³³": 1542,
      "æĪĲä¸ºäºĨæľĢå¥½çļĦæľĭåıĭ": 1543,
      "åľ°è¯´": 1544,
      "åį³": 1545,
      "äºĨä¸Ģä¸ªä¸»æĦı": 1546,
      "é»Ħ": 1547,
      "å½¼": 1548,
      "äº²": 1549,
      "å¢": 1550,
      "éģĩåĪ°äºĨ": 1551,
      "éŃĶ": 1552,
      "åĳĬè¯īä»ĸ": 1553,
      "åĲĵ": 1554,
      "ä»İéĤ£": 1555,
      "åĳ¼": 1556,
      "èĢĮä¸Ķ": 1557,
      "ä»ĸä»¬åĸľæ¬¢": 1558,
      "ç¿¼": 1559,
      "åı¦": 1560,
      "ç»Ļä»ĸ": 1561,
      "æĦŁåĪ°éªĦåĤ²": 1562,
      "ä¹Łè®¸": 1563,
      "ç¢İ": 1564,
      "ä¹Łæĥ³": 1565,
      "æĺ¯ä¸Ģåıª": 1566,
      "é¡¾": 1567,
      "ªļ": 1568,
      "åªļ": 1569,
      "æĺİåªļ": 1570,
      "´åŃĲ": 1571,
      "åĨĻ": 1572,
      "åĳĺ": 1573,
      "ç¯": 1574,
      "æľª": 1575,
      "ä¸Ģèµ·åİ»": 1576,
      "¯åŃĲ": 1577,
      "æĦŁåĪ°éĿŀå¸¸": 1578,
      "éĥ": 1579,
      "ä¸Ģæ£µ": 1580,
      "æ£į": 1581,
      "éĥ½åľ¨": 1582,
      "çľĭèµ·æĿ¥å¾Ī": 1583,
      "åıĪå¤§": 1584,
      "ä»¶æĦıæĥ³ä¸įåĪ°çļĦäºĭæĥħ": 1585,
      "éĺ³åħīæĺİåªļ": 1586,
      "éĩİ": 1587,
      "åĸĿ": 1588,
      "è·ĥ": 1589,
      "åŃ¦åĪ°äºĨ": 1590,
      "åł¡": 1591,
      "åľ¨äºĨ": 1592,
      "ä¸ĢæĿ¡": 1593,
      "æĥ³å¸®åĬ©": 1594,
      "æİ¢ç´¢": 1595,
      "å¿ĺè®°": 1596,
      "æ¸ħ": 1597,
      "ä¸ĬçļĦ": 1598,
      "é¼ĵ": 1599,
      "ĩæ·ĭ": 1600,
      "æ·ĩæ·ĭ": 1601,
      "åĨ°æ·ĩæ·ĭ": 1602,
      "åĹ¨": 1603,
      "ï¼ĮâĢľ": 1604,
      "é¹°": 1605,
      "çļĦå£°éŁ³": 1606,
      "è¿½": 1607,
      "åıĪå¤§åıĪ": 1608,
      "å°¾": 1609,
      "èĬ±æľµ": 1610,
      "ä¸ĸ": 1611,
      "å¾®ç¬ĳçĿĢ": 1612,
      "äºĴ": 1613,
      "æĿ¥äºĨ": 1614,
      "å£®": 1615,
      "å¥¹åĸľæ¬¢åľ¨": 1616,
      "çİ©å¾Ĺ": 1617,
      "è§Ĥ": 1618,
      "æ¯ıä¸ª": 1619,
      "å¥¹æĬĬ": 1620,
      "èľĤ": 1621,
      "å²": 1622,
      "åĪ»": 1623,
      "äº«åıĹ": 1624,
      "æ¡Į": 1625,
      "è·ŁçĿĢ": 1626,
      "å¦¹": 1627,
      "è¦ģå°ıå¿ĥ": 1628,
      "æ»ļ": 1629,
      "å°¾å·´": 1630,
      "å¥¹çļĦå¦Īå¦Īè¯´": 1631,
      "åĴ¬": 1632,
      "æĢĿ": 1633,
      "åľĪ": 1634,
      "æĪĸ": 1635,
      "æĭ¿çĿĢ": 1636,
      "çĬ": 1637,
      "è¿Ļåıªé¸Ł": 1638,
      "çŃīå¾ħ": 1639,
      "æ¤ħ": 1640,
      "åľŁ": 1641,
      "æ´¾å¯¹": 1642,
      "åĽ¢": 1643,
      "æ¹¿": 1644,
      "æĽ´åĬł": 1645,
      "ç«Ļ": 1646,
      "æ»¡äºĨ": 1647,
      "çĤ¹çĤ¹å¤´": 1648,
      "è¿ĩåİ»": 1649,
      "åĽŀäºĨ": 1650,
      "åĵģ": 1651,
      "å¥¹çļĦçİ©åħ·": 1652,
      "ä¸ºèĩªå·±": 1653,
      "ç¾İå¥½çļĦ": 1654,
      "é¢ľèī²": 1655,
      "éĥ¨": 1656,
      "éĩįè¦ģçļĦ": 1657,
      "ä½ıäºĨ": 1658,
      "çļĦçĶ·åŃ©": 1659,
      "è·³è·ĥ": 1660,
      "æįī": 1661,
      "æĦŁè§īå¥½å¤ļäºĨ": 1662,
      "æĹħ": 1663,
      "ä¼ĳ": 1664,
      "im": 1665,
      "çķĮ": 1666,
      "èľľ": 1667,
      "ä¸¤ä¸ª": 1668,
      "ä½ĵ": 1669,
      "ä»¥åĲİ": 1670,
      "åį³ä½¿": 1671,
      "äºĴçĽ¸": 1672,
      "ç¥ŀå¥ĩ": 1673,
      "ä»ĸä¼ļ": 1674,
      "éĩĮçļĦ": 1675,
      "åĸ·": 1676,
      "ç»Ļä½ł": 1677,
      "çº¦": 1678,
      "ä¸ĸçķĮ": 1679,
      "¡èĲ": 1680,
      "ä¸įåĲĮ": 1681,
      "æĹ©": 1682,
      "åı¯æĢķ": 1683,
      "æ³¡": 1684,
      "å·¨å¤§çļĦ": 1685,
      "ä¼ĳæģ¯": 1686,
      "çªĹ": 1687,
      "çģ«è½¦": 1688,
      "éŀ": 1689,
      "åĪ°å¤Ħ": 1690,
      "æľīä¸Ģä¸ªåĲįåı«": 1691,
      "æ£įåŃĲ": 1692,
      "äºī": 1693,
      "å°±æĺ¯": 1694,
      "éªĳ": 1695,
      "é¥¿": 1696,
      "å¾ĪæĥĬè®¶": 1697,
      "æĿ¥åĪ°äºĨ": 1698,
      "çĮ«å¤´": 1699,
      "èº«è¾¹": 1700,
      "å®ĥæĺ¯": 1701,
      "è·ĳåİ»": 1702,
      "è¢ĭ": 1703,
      "èĦ¸": 1704,
      "èİīèİīéĿŀå¸¸é«ĺåħ´": 1705,
      "åĪ¶ä½ľ": 1706,
      "çĮ«å¤´é¹°": 1707,
      "åĵ¦": 1708,
      "ç®Ģ": 1709,
      "ç¿°": 1710,
      "çº¦ç¿°": 1711,
      "æĹ¥åŃĲ": 1712,
      "éĢļ": 1713,
      "ä½ıåľ¨": 1714,
      "é¢ĺ": 1715,
      "çļĦå¯": 1716,
      "ä»ĸä»¬ä¸Ģèµ·çİ©": 1717,
      "äºĨèµ·æĿ¥": 1718,
      "æ³°è¿ªçĨĬ": 1719,
      "è®©å®ĥ": 1720,
      "åĿļ": 1721,
      "åĸĬéģĵ": 1722,
      "èĴĤç±³çļĦå¦Īå¦Ī": 1723,
      "å¸®æĪĳ": 1724,
      "çĶ»çĶ»": 1725,
      "å¥³å£«": 1726,
      "æ±¤å§Ĩè¯´": 1727,
      "æµģ": 1728,
      "ç´¯": 1729,
      "ä¹ĭåīį": 1730,
      "ç³Ł": 1731,
      "æĦŁæ¿Ģ": 1732,
      "çº¿": 1733,
      "èŀ": 1734,
      "ä¸ĢçĤ¹": 1735,
      "åįĪ": 1736,
      "åģļäºĨ": 1737,
      "åĬŁ": 1738,
      "ç§¯": 1739,
      ",âĢĿ": 1740,
      "ä¸ĢçĽ´": 1741,
      "æ¸©æļĸ": 1742,
      "ç¤¼çī©": 1743,
      "æĦŁåĪ°å¾Īéļ¾è¿ĩ": 1744,
      "æľīä¸Ģä¸ªå°ıå¥³åŃ©åĲįåı«èİīèİī": 1745,
      "å¥Ĺ": 1746,
      "æ¯Ľæ¯Ľ": 1747,
      "èį¡": 1748,
      "è¿Ľåİ»": 1749,
      "Ġèİīèİī": 1750,
      "ç«ĭ": 1751,
      "çħ§é¡¾": 1752,
      "æľīä»Ģä¹Ī": 1753,
      "å¾Īæľīè¶£": 1754,
      "ä¹İ": 1755,
      "æĦŁåĪ°éļ¾è¿ĩ": 1756,
      "ä¸ĢåĿĹ": 1757,
      "åĿıäºĨ": 1758,
      "ï¼ģ\"": 1759,
      "å¥¹åĸľæ¬¢åĴĮå¥¹çļĦ": 1760,
      "äºĭçī©": 1761,
      "åħħ": 1762,
      "ä¸Ģä¸ªå°ıå¥³åŃ©": 1763,
      "æĪĲåĬŁ": 1764,
      "å½¼æŃ¤": 1765,
      "ĵæĦı": 1766,
      "å®¶éĩĮ": 1767,
      "æĭ¿èµ·": 1768,
      "ç§¯æľ¨": 1769,
      "æ±¤ç±³": 1770,
      "çĳ": 1771,
      "ä¸Ģå£°": 1772,
      "éĤ£äºĽ": 1773,
      "ç»³": 1774,
      "çĮ´åŃĲ": 1775,
      "åģļä»Ģä¹Ī": 1776,
      "åĲµ": 1777,
      "åĲİéĿ¢": 1778,
      "æ¯ıä¸ªäºº": 1779,
      "å¤§çĭĹ": 1780,
      "çļĦå¯ĵæĦı": 1781,
      "Sp": 1782,
      "Ń¦": 1783,
      "ç´§ç´§": 1784,
      "åı¯èĥ½ä¼ļ": 1785,
      "æ»©": 1786,
      "ä»ĸæĬĬ": 1787,
      "é©¬åħĭ": 1788,
      "èĩªè¡Į": 1789,
      "çİĭ": 1790,
      "èĴĤç±³åĸľæ¬¢": 1791,
      "èĩªè¡Įè½¦": 1792,
      "æ·±": 1793,
      "çļĦå°ıå¥³åŃ©": 1794,
      "æ³¥": 1795,
      "åĲ¬ä»İ": 1796,
      "ot": 1797,
      "åħ³ç³»": 1798,
      "è¿ĩä¸ĬäºĨ": 1799,
      "ç©¿ä¸Ĭ": 1800,
      "åĴĮæľ¬": 1801,
      "åĽ½": 1802,
      "æ°ĶçĲĥ": 1803,
      "æľīä¸ª": 1804,
      "æĦŁè°¢äºĨ": 1805,
      "æĺ¯åĲ¦åı¯ä»¥": 1806,
      "åĴĮä»ĸçļĦå¦Īå¦Ī": 1807,
      "åİ»åħ¬åĽŃçİ©": 1808,
      "èĢĥ": 1809,
      "æĮ¥": 1810,
      "æĤ": 1811,
      "é³": 1812,
      "èİīèİīæĥ³": 1813,
      "åľ¨ä¸Ģä¸ªå°ı": 1814,
      "ä»İæŃ¤": 1815,
      "åĩºäºĨ": 1816,
      "éĹ®é¢ĺ": 1817,
      "èıľ": 1818,
      "åĺ´": 1819,
      "è¿Ļä¸ªæķħäºĭçļĦå¯ĵæĦı": 1820,
      "åĵ¥": 1821,
      "çĪ¬ä¸Ĭ": 1822,
      "åĢĴäºĨ": 1823,
      "å¾Īå¼Ģå¿ĥ": 1824,
      "æ²¡åħ³ç³»": 1825,
      "è¿ĩä¸ĬäºĨå¹¸ç¦ı": 1826,
      "ä»ĸä»¬æĥ³": 1827,
      "å¥½å¥ĩ": 1828,
      "äºĨä¸Ģæķ´å¤©": 1829,
      "è®¡": 1830,
      "è§Ĩ": 1831,
      "åĪĽ": 1832,
      "ä¸įåıĬ": 1833,
      "èĴĤå§Ĩè¯´": 1834,
      "éĽ·": 1835,
      "è¿Ļä¸ªæķħäºĭçļĦå¯ĵæĦıæĺ¯": 1836,
      "çĭĹçĭĹ": 1837,
      "çİ©èĢįæĹ¶": 1838,
      "è¶³": 1839,
      "éŃĶæ³ķ": 1840,
      "æĪĲä¸ºäºĨå¥½æľĭåıĭ": 1841,
      "èİīèİīå¾Īé«ĺåħ´": 1842,
      "èĮ¸": 1843,
      "å®ĮæĪĲ": 1844,
      "é£ŀèµ°äºĨ": 1845,
      "å°ıçĮ«": 1846,
      "ä¼¤å®³": 1847,
      "ä»Ĭå¤©": 1848,
      "é£ŀæľº": 1849,
      "æīĵå¼ĢäºĨ": 1850,
      "åłĨ": 1851,
      "çĵ¶": 1852,
      "åĩł": 1853,
      "è¯»": 1854,
      "ä»İæľª": 1855,
      "åģľä¸ĭæĿ¥": 1856,
      "åľ°æĿ¿": 1857,
      "å¾Īå¤§çļĦ": 1858,
      "æĸĻ": 1859,
      "çļĦè£": 1860,
      "æ¥": 1861,
      "è½®": 1862,
      "éĶĻ": 1863,
      "ä¸Ľ": 1864,
      "å¼ºå£®": 1865,
      "èĳ": 1866,
      "å®¢": 1867,
      "çİ©äºĨ": 1868,
      "ä»ĸä»¬è¯´": 1869,
      "åĽŀçŃĶè¯´": 1870,
      "Tim": 1871,
      "çļĦå®¶": 1872,
      "çİĽ": 1873,
      "éĿŀå¸¸æĥĬè®¶": 1874,
      "è§ģäºĨ": 1875,
      "èµ¢": 1876,
      "ä¸Ģä¸ªåĲįåı«èĴĤå§ĨçļĦ": 1877,
      "èĨĢ": 1878,
      "æº": 1879,
      "å®ĥå¾Ī": 1880,
      "å¸®åĬ©ä»ĸ": 1881,
      "èŁ": 1882,
      "æĺ¯ä»Ģä¹Ī": 1883,
      "æ²³": 1884,
      "æį¡èµ·": 1885,
      "å°ıåħĶåŃĲ": 1886,
      "å½±": 1887,
      "åĳ¨åĽ´": 1888,
      "æłĳæŀĿ": 1889,
      "ä¸ĢåĪĩ": 1890,
      "å¡Ķ": 1891,
      "æ´ĭå¨ĥå¨ĥ": 1892,
      "åĲĮæĦıäºĨ": 1893,
      "æĽ´å¥½": 1894,
      "æĢİä¹ĪäºĨ": 1895,
      "æĽ´å¤ļçļĦ": 1896,
      "åģľæŃ": 1897,
      "é¦ĸ": 1898,
      "åĴĮå¥¹çļĦå¦Īå¦Ī": 1899,
      "çĥ¤": 1900,
      "ç¢Ĺ": 1901,
      "åį±": 1902,
      "ç¡¬": 1903,
      "æľīçĤ¹": 1904,
      "çŃĶåºĶ": 1905,
      "åį±éĻ©": 1906,
      "åľĨ": 1907,
      "é©¶": 1908,
      "éĽ¶": 1909,
      "å¦ĤæŃ¤": 1910,
      "ç¿Ķ": 1911,
      "å¥ĩæĢª": 1912,
      "èº²": 1913,
      "ä¸Ģæ¬¡": 1914,
      "ä»ĸä»¬åĨ³å®ļ": 1915,
      "æ²»": 1916,
      "æĿ¥åĪ°": 1917,
      "å·¢": 1918,
      "éĹªäº®çļĦ": 1919,
      "Spot": 1920,
      "æĿ¥è¯´": 1921,
      "èħ": 1922,
      "åıĤ": 1923,
      "å¥¹çľĭåĪ°": 1924,
      "åľ¨éĤ£éĩĮ": 1925,
      "é¸¡": 1926,
      "è¹": 1927,
      "æĿ¥è¶Ĭ": 1928,
      "æĬ¬": 1929,
      "éĢģ": 1930,
      "è¶ĬæĿ¥è¶Ĭ": 1931,
      "ï¼ģ<|": 1932,
      "å·¾": 1933,
      "èĦļ": 1934,
      "æīį": 1935,
      "éŁ³ä¹Ĳ": 1936,
      "è¿Ļæĺ¯ä¸Ģä¸ª": 1937,
      "æĶ¾è¿Ľ": 1938,
      "çĭ¸": 1939,
      "çĭĲ": 1940,
      "âĢĶâĢĶ": 1941,
      "çĶļ": 1942,
      "å¯Ĩ": 1943,
      "èŃ¦": 1944,
      "çĶľ": 1945,
      "éĹ»": 1946,
      "çĶļèĩ³": 1947,
      "å¤į": 1948,
      "éĤ£ä¹Ī": 1949,
      "å®¤": 1950,
      "ä¸ĭäºĨ": 1951,
      "çĭĲçĭ¸": 1952,
      "æĪĳä¹Ł": 1953,
      "æ³¨æĦıåĪ°": 1954,
      "æ²¹": 1955,
      "ç¨ĭ": 1956,
      "çļĦçĮ«": 1957,
      "éĩĬ": 1958,
      "å¼Łå¼Ł": 1959,
      "çľŁçļĦ": 1960,
      "ä¹ħ": 1961,
      "å°Ķ": 1962,
      "è¿Ļæ¬¡": 1963,
      "å¾ħåľ°": 1964,
      "å¦Īå¦ĪçļĦè¯Ŀ": 1965,
      "ä»¥åıĬ": 1966,
      "åĪĴ": 1967,
      "è£ĻåŃĲ": 1968,
      "è¿«": 1969,
      "è®Ń": 1970,
      "éģĵæŃī": 1971,
      "è´´": 1972,
      "åįķ": 1973,
      "éķĩ": 1974,
      "äººä»¬": 1975,
      "å°±åĥı": 1976,
      "åº¦è¿ĩäºĨå¾Īå¤ļ": 1977,
      "çĽĸ": 1978,
      "èļģ": 1979,
      "éĻ¢åŃĲéĩĮ": 1980,
      "æŁĶè½¯": 1981,
      "è¿«ä¸įåıĬ": 1982,
      "æ±ģ": 1983,
      "éĢī": 1984,
      "åĮ»çĶŁ": 1985,
      "è¿«ä¸įåıĬå¾ħåľ°": 1986,
      "å¼¹": 1987,
      "è¿Ĳ": 1988,
      "æµ·æ»©": 1989,
      "Ĥèļģ": 1990,
      "ä»ĸä»¬å¼Ģå§ĭ": 1991,
      "æĪĳèĥ½": 1992,
      "æķĻè®Ń": 1993,
      "å¥¹å¦Īå¦Ī": 1994,
      "è§£éĩĬ": 1995,
      "åıĳçĶŁäºĨä»Ģä¹Ī": 1996,
      "åģĩè£ħ": 1997,
      "çļĦè·¯": 1998,
      "æĪĳä»¬çļĦ": 1999,
      "å¤´åıĳ": 2000,
      "å¾®ç¬ĳ": 2001,
      "çĽ¸ä¿¡": 2002,
      "å¼ĥ": 2003,
      "ç§ĺ": 2004,
      "ä¸Ģæł¹": 2005,
      "æŁ¥": 2006,
      "ä»ĸä»¬æĬĬ": 2007,
      "æĪĳåĸľæ¬¢": 2008,
      "è®º": 2009,
      "è§īå¾Ĺå¾Ī": 2010,
      "Ŀåį": 2011,
      "åĳ¢": 2012,
      "è®¤ä¸º": 2013,
      "Ŀåįľ": 2014,
      "ç»³åŃĲ": 2015,
      "æľīäºĽ": 2016,
      "äºĳ": 2017,
      "å®¹": 2018,
      "ä¹Į": 2019,
      "éĩı": 2020,
      "çļĦå°ıçĭĹ": 2021,
      "æļĹ": 2022,
      "èİ«": 2023,
      "ä»ĸéĹ®": 2024,
      "ä½łæĥ³": 2025,
      "åħ¬ä¸»": 2026,
      "åŃ¦ä¹ł": 2027,
      "ç¿ħ": 2028,
      "å¥¹çŁ¥éģĵ": 2029,
      "è§Ĵ": 2030,
      "çļĦå¥³åŃ©": 2031,
      "éĺ³åħīä¸ĭ": 2032,
      "åŁİåł¡": 2033,
      "åĴĮä½ł": 2034,
      "çļĦèĦ": 2035,
      "æ¤į": 2036,
      "å¹¶ä¸Ķ": 2037,
      "æģ©": 2038,
      "æĺŁæĺŁ": 2039,
      "æĹ§": 2040,
      "æĶ¾å¼ĥ": 2041,
      "æ¥¼": 2042,
      "åĿĳ": 2043,
      "åĮĻ": 2044,
      "ç¬ĳäºĨç¬ĳ": 2045,
      "åĨįä¹Łæ²¡æľī": 2046,
      "ç¿ħèĨĢ": 2047,
      "åŃ¤": 2048,
      "åĴĮèİīèİī": 2049,
      "å¢Ļ": 2050,
      "ä½Ĩä»ĸä»¬": 2051,
      "çģ¯": 2052,
      "åı°": 2053,
      "çľĭåĪ°ä¸Ģæ£µ": 2054,
      "åĽŀåĪ°å®¶": 2055,
      "åľ¨å¤ĸéĿ¢çİ©èĢį": 2056,
      "è¿·èĹı": 2057,
      "æįīè¿·èĹı": 2058,
      "æłĳä¸ĭ": 2059,
      "éĿłè¿ĳ": 2060,
      "æ°´éĩĮ": 2061,
      "ä¸Ģè¾Ĩ": 2062,
      "å¾Ĺä¸į": 2063,
      "èµ°è¿Ľ": 2064,
      "æ°´æŀľ": 2065,
      "è°ģ": 2066,
      "ä¸¾": 2067,
      "è¯º": 2068,
      "å°ĸ": 2069,
      "æĿ¥çİ©": 2070,
      "å¯Ł": 2071,
      "çĽĺ": 2072,
      "å¥¹åĨ³å®ļ": 2073,
      "å¸ģ": 2074,
      "äºĨä¸Ģä¸ªå¤§": 2075,
      "è§ģè¿ĩ": 2076,
      "åıªè¦ģ": 2077,
      "æĪĳæĺ¯": 2078,
      "éĩĳ": 2079,
      "ç»ĻæĪĳ": 2080,
      "çļĦè£ĻåŃĲ": 2081,
      "ä¸ĳ": 2082,
      "å¾Ĺå¤ª": 2083,
      "åľ¨çİ©": 2084,
      "é£ŀç¿Ķ": 2085,
      "èĴĤå§ĨçļĦå¦Īå¦Ī": 2086,
      "ä»ĸä»¬çİ©å¾Ĺå¾Īå¼Ģå¿ĥ": 2087,
      "åĬłåħ¥": 2088,
      "èİİ": 2089,
      "èģªæĺİçļĦ": 2090,
      "å¥¹éĿŀå¸¸": 2091,
      "è®©æĪĳ": 2092,
      "å¸®åĬ©å¥¹": 2093,
      "ä»ĸçŁ¥éģĵ": 2094,
      "æľ¬è¯´": 2095,
      "å°½ç®¡": 2096,
      "ĨèĻ«": 2097,
      "æĺĨèĻ«": 2098,
      "æľīä¸Ģä¸ªå°ıçĶ·åŃ©åı«èĴĤå§Ĩ": 2099,
      "èĵĿèī²çļĦ": 2100,
      "æ¶Īå¤±": 2101,
      "å®ĥéĿŀå¸¸": 2102,
      "å¤«": 2103,
      "èĢĲ": 2104,
      "åĲįåŃĹ": 2105,
      "ç¾Ĭ": 2106,
      "åľ¨åľ°ä¸Ĭ": 2107,
      "å¼Ģå§ĭåĵŃæ³£": 2108,
      "èļĤèļģ": 2109,
      "çī¹åĪ«çļĦ": 2110,
      "è¯ķè¯ķ": 2111,
      "ä¸Ģä¸ªå°ıçĶ·åŃ©": 2112,
      "æĽ²": 2113,
      "æķ´å¤©éĥ½åľ¨": 2114,
      "è¿Ļæ£µ": 2115,
      "ç»Ļå¦Īå¦Ī": 2116,
      "è¡¨æ¼Ķ": 2117,
      "å¹¶è¯´": 2118,
      "åıĺæĪĲ": 2119,
      "é½": 2120,
      "å¼łæľĽ": 2121,
      "éħ·": 2122,
      "åľ°æĿ¿ä¸Ĭ": 2123,
      "»åŃĲ": 2124,
      "ä»ĸéĿŀå¸¸": 2125,
      "åĲĦ": 2126,
      "éĤ£ä¸ªçĶ·äºº": 2127,
      "ä»ĸçľĭåĪ°äºĨ": 2128,
      "æĪ·": 2129,
      "äºĽæĹ¶åĢĻ": 2130,
      "çİ©åħ·è½¦": 2131,
      "æĹ¶èµ·": 2132,
      "åĩºçİ°": 2133,
      "æ¤įçī©": 2134,
      "é«ĺåħ´åľ°": 2135,
      "æľºåĻ¨": 2136,
      "ä»İéĤ£æĹ¶èµ·": 2137,
      "éĽ¶é£Ł": 2138,
      "åĲİæĿ¥": 2139,
      "æĦŁåĪ°å¾Ī": 2140,
      "æĻĥ": 2141,
      "ç½Ĳ": 2142,
      "åľ¨å¤ĸéĿ¢çİ©": 2143,
      "çĸ¼": 2144,
      "éĨĴæĿ¥": 2145,
      "èİīèİīåĴĮæľ¬": 2146,
      "æķħäºĭç»ĵæĿŁ": 2147,
      "å¤§äºĨ": 2148,
      "ç¥ĸ": 2149,
      "Kitt": 2150,
      "å¾Ģ": 2151,
      "¡èĲĿåįľ": 2152,
      "Kitty": 2153,
      "å¥ĸ": 2154,
      "ä½łåľ¨": 2155,
      "ä¿ĿæĬ¤": 2156,
      "åľ¨åħ¬åĽŃéĩĮçİ©": 2157,
      "åĨľåľº": 2158,
      "æŁľ": 2159,
      "ä¸¢äºĨ": 2160,
      "æī¿": 2161,
      "èĴĤå§Ĩåĸľæ¬¢": 2162,
      "æ³¢æ³¢": 2163,
      "æĬĬå®ĥä»¬": 2164,
      "èįīåľ°ä¸Ĭ": 2165,
      "åĽĽå¤Ħå¼łæľĽ": 2166,
      "ä¹±": 2167,
      "çģ°": 2168,
      "ģäºĨ": 2169,
      "æĺ¯å¾Ī": 2170,
      "èĴĤå§Ĩæĥ³": 2171,
      "åĳ³éģĵ": 2172,
      "åı¶åŃĲ": 2173,
      "å°Ĩ": 2174,
      "åıĭå¥½çļĦ": 2175,
      "è¿ĻåıªçĭĹ": 2176,
      "æĢªçī©": 2177,
      "éĩĮçİ©èĢį": 2178,
      "ä½Ĩæ²¡æľī": 2179,
      "äºĨä»ĸ": 2180,
      "ä¼¸": 2181,
      "ãĢĤâĢĿ<|": 2182,
      "å¹´": 2183,
      "éĢĥ": 2184,
      "çļĦå°ıé¸Ł": 2185,
      "åĴĮä»ĸ": 2186,
      "ä½łæĺ¯": 2187,
      "æĻļäºĽæĹ¶åĢĻ": 2188,
      "æĭ¥æľī": 2189,
      "ç¾ŀ": 2190,
      "è§īå¾Ĺèĩªå·±": 2191,
      "å¥Ķ": 2192,
      "è®®": 2193,
      "æģ¶": 2194,
      "ħç¬Ķ": 2195,
      "æľīäºĨä¸Ģä¸ªä¸»æĦı": 2196,
      "è·ĳæĿ¥": 2197,
      "ç²Ĺ": 2198,
      "éĵħç¬Ķ": 2199,
      "çĵľ": 2200,
      "èµ¢å¾Ĺ": 2201,
      "ç§»": 2202,
      "è·Łåīį": 2203,
      "èĢħ": 2204,
      "æĭ¼": 2205,
      "åĽłä¸ºå®ĥ": 2206,
      "Bu": 2207,
      "å¥ı": 2208,
      "èİīèİīåĸľæ¬¢": 2209,
      "èİīèİīéĹ®": 2210,
      "å¼ĢäºĨ": 2211,
      "åİ»åķĨåºĹ": 2212,
      "ç´¯äºĨ": 2213,
      "æĻļé¤Ĳ": 2214,
      "èį¡ç§ĭåįĥ": 2215,
      "¥åĮĻ": 2216,
      "æĿİ": 2217,
      "è¿ĩäºĨä¸Ģä¼ļåĦ¿": 2218,
      "éĴ¥åĮĻ": 2219,
      "åıĤåĬł": 2220,
      "ä¼ł": 2221,
      "ä»İéĤ£å¤©å¼Ģå§ĭ": 2222,
      "ç»ĻäºĨå¥¹": 2223,
      "æ¾": 2224,
      "ä¸įå¥½": 2225,
      "çĶ°": 2226,
      "å±±å§Ĩ": 2227,
      "æīĵæī": 2228,
      "éľĢè¦ģå¸®åĬ©": 2229,
      "æĹģè¾¹": 2230,
      "åıĸ": 2231,
      "ä¸įè§ģäºĨ": 2232,
      "å¤§å£°": 2233,
      "é¹ħ": 2234,
      "çĶµè¯Ŀ": 2235,
      "äºĨä¸ª": 2236,
      "äºĨä¸Ģåı£": 2237,
      "ä¸Ģèµ·çİ©åĲĹ": 2238,
      "éĵ¾": 2239,
      "æľīäºº": 2240,
      "åİ»çľĭ": 2241,
      "é«ĺé«ĺ": 2242,
      "æĳĩæĻĥ": 2243,
      "å¥¹çľĭåĪ°äºĨ": 2244,
      "ä½łæĥ³åĴĮ": 2245,
      "æĶ¯": 2246,
      "æİĮ": 2247,
      "éĴŁ": 2248,
      "åıĳçİ°äºĨä¸Ģä¸ªå¤§": 2249,
      "åĸĦèī¯çļĦ": 2250,
      "ä»Ļ": 2251,
      "ä»ĸçľĭåĪ°": 2252,
      "å¥½åĲ§": 2253,
      "æ¡¶": 2254,
      "ä»ĸä»¬çľĭåĪ°äºĨ": 2255,
      "åĽŀåİ»": 2256,
      "èĽĽ": 2257,
      "å¿ĺè®°äºĨ": 2258,
      "åĵ¦ä¸į": 2259,
      "æĸŃ": 2260,
      "åīª": 2261,
      "æĪ´çĿĢ": 2262,
      "æ©¡": 2263,
      "å§Ĳ": 2264,
      "ï¼Ł\"": 2265,
      "éĿŀå¸¸åħ´å¥ĭåľ°": 2266,
      "ĺèĽĽ": 2267,
      "ä¸įå¾Ĺä¸į": 2268,
      "ens": 2269,
      "æĦŁåĪ°é«ĺåħ´": 2270,
      "è´Ŀå°¼": 2271,
      "ittens": 2272,
      "ç»Īäºİ": 2273,
      "å¥Ķè·ĳ": 2274,
      "çĶ¨å®ĥ": 2275,
      "çĬ¶": 2276,
      "è¿Ļè¾Ĩ": 2277,
      "æīĢä»¥ä»ĸ": 2278,
      "æ¯ıä¸ªäººéĥ½": 2279,
      "éĿ¢åĮħ": 2280,
      "æĬĵä½ıäºĨ": 2281,
      "å¼±": 2282,
      "éĽĨ": 2283,
      "ç¢°": 2284,
      "åıĹä¼¤äºĨ": 2285,
      "æī¿è¯º": 2286,
      "è·ĳäºĨ": 2287,
      "å¿«ä¹ĲçļĦçĶŁæ´»": 2288,
      "ä¾¿": 2289,
      "æ¾¡": 2290,
      "çĩ": 2291,
      "æĺİæ²»": 2292,
      "çļĦèĥ": 2293,
      "èİīèİīåĴĮå¥¹çļĦå¦Īå¦Ī": 2294,
      "ä¸īæĺİæ²»": 2295,
      "ä¸Ģä»¶": 2296,
      "ä¹ĭåĲİ": 2297,
      "å·¨åĵį": 2298,
      "èĪĴéĢĤ": 2299,
      "èİīèİīåľ¨": 2300,
      "åģ·": 2301,
      "å°±åľ¨è¿Ļ": 2302,
      "éĤ£å¤©æĻļäºĽæĹ¶åĢĻ": 2303,
      "çģĮ": 2304,
      "åıĳçĶŁäºĨä¸Ģ": 2305,
      "æĴŀ": 2306,
      "èĬĤ": 2307,
      "å±ħ": 2308,
      "æĪĳä¼ļå¸®ä½ł": 2309,
      "æ²¡æľīåĲ¬": 2310,
      "éĺµ": 2311,
      "åĩºåİ»çİ©": 2312,
      "ç«ĭåĪ»": 2313,
      "ä½łçľŁ": 2314,
      "æĦīå¿«çļĦä¸Ģå¤©": 2315,
      "è¸¢": 2316,
      "è¿ĩä¸ĬäºĨå¹¸ç¦ıå¿«ä¹ĲçļĦçĶŁæ´»": 2317,
      "éĤ®": 2318,
      "åİ»æķ£æŃ¥": 2319,
      "åľ¨ä¸Ģä¸ªå¤§": 2320,
      "çļĦæĺ¯": 2321,
      "å±ŀ": 2322,
      "å½©èī²": 2323,
      "ä»¤": 2324,
      "å·§": 2325,
      "ä¹Ĳè¶£": 2326,
      "çģĮæľ¨": 2327,
      "çļĦæĹ¥åŃĲ": 2328,
      "å¦Īå¦ĪåĴĮçĪ¸çĪ¸": 2329,
      "ä½łå¿ħé¡»": 2330,
      "æµª": 2331,
      "ç®±éĩĮ": 2332,
      "īåŃĲ": 2333,
      "å¸®åĬ©åĪ«äºº": 2334,
      "éŀĭåŃĲ": 2335,
      "å°±åľ¨è¿ĻæĹ¶": 2336,
      "æĻ®": 2337,
      "æ··": 2338,
      "æĢĿèĢĥ": 2339,
      "èĢĲå¿ĥ": 2340,
      "åıĮ": 2341,
      "åĲ¸": 2342,
      "æķ²": 2343,
      "è¿Ľè¡Į": 2344,
      "æ±Ĥå¸®åĬ©": 2345,
      "éĹªéĹªåıĳåħīçļĦ": 2346,
      "èĪĴæľį": 2347,
      "çĪ·": 2348,
      "å¾Īé«ĺåħ´åľ°": 2349,
      "æ®Ĭ": 2350,
      "æĦ¿æĦı": 2351,
      "è¯ļ": 2352,
      "æĭ¿åĩº": 2353,
      "çī¹æ®Ĭ": 2354,
      "èŁ¹": 2355,
      "ä¸Ģå¼ł": 2356,
      "æĿ¯": 2357,
      "è®²": 2358,
      "ï¼ģâĢĿ<|": 2359,
      "æłĳæŀĹ": 2360,
      "ĥèŁ¹": 2361,
      "è¦ģåİ»": 2362,
      "æ±¤å§ĨçļĦ": 2363,
      "æį¡èµ·æĿ¥": 2364,
      "åĲĥå®Į": 2365,
      "æĹħè¡Į": 2366,
      "ä¸Ģå£°å·¨åĵį": 2367,
      "ee": 2368,
      "åİħ": 2369,
      "çĥŁ": 2370,
      "åģ¥": 2371,
      "åĳĬåĪ«": 2372,
      "æĮĤ": 2373,
      "åĴĮå¦Īå¦Īä¸Ģèµ·": 2374,
      "ä½łä¸ºä»Ģä¹Ī": 2375,
      "ç¿¼ç¿¼": 2376,
      "ªéŁ³": 2377,
      "åĪĢ": 2378,
      "èĥ½å¤Ł": 2379,
      "æĬ±æŃī": 2380,
      "æī¾åĪ°äºĨä¸Ģä¸ª": 2381,
      "åĻªéŁ³": 2382,
      "ç¦»å¼ĢäºĨ": 2383,
      "ä»ĸä»¬ä¼ļ": 2384,
      "èīĺ": 2385,
      "æłĳæľ¨": 2386,
      "åħ´å¥ĭåľ°": 2387,
      "ç©¿çĿĢ": 2388,
      "æ®µ": 2389,
      "å¾ĹéĿŀå¸¸": 2390,
      "å»ºè®®": 2391,
      "ç¡¬å¸ģ": 2392,
      "åıĳçĶŁäºĨä»Ģä¹Īäºĭ": 2393,
      "åĴĮçİ©èĢį": 2394,
      "é¹¿": 2395,
      "èľľèľĤ": 2396,
      "ä½łæĥ³åĴĮæĪĳ": 2397,
      "ħéĢŁ": 2398,
      "è¿ħéĢŁ": 2399,
      "åİĨ": 2400,
      "è®¿": 2401,
      "æłĩ": 2402,
      "åĵŃäºĨ": 2403,
      "é£İåĲ¹": 2404,
      "æĪĲä¸ºäºĨæľĭåıĭ": 2405,
      "äºīåĲµ": 2406,
      "èł": 2407,
      "åº¦è¿ĩäºĨä¸Ģä¸ª": 2408,
      "èĥ¡èĲĿåįľ": 2409,
      "åĲİéĻ¢": 2410,
      "é£ŀè¡Į": 2411,
      "è®°å¾Ĺ": 2412,
      "ä½łèĥ½å¸®æĪĳ": 2413,
      "æĮ¥æīĭ": 2414,
      "è¿Ļä½į": 2415,
      "éĤ£ä¸ªäºº": 2416,
      "èľĺèĽĽ": 2417,
      "å¾Īå¿«å°±": 2418,
      "æĭįæīĭ": 2419,
      "æĮĸ": 2420,
      "å°ıå¿ĥç¿¼ç¿¼": 2421,
      "ä¸Ģéĺµ": 2422,
      "åľ¨æ£®æŀĹéĩĮ": 2423,
      "ä»ĸçļĦå¦Īå¦Īè¯´": 2424,
      "åº·": 2425,
      "éª¨": 2426,
      "åĿĲä¸ĭæĿ¥": 2427,
      "åŃ¤çĭ¬": 2428,
      "èĶ": 2429,
      "èµ¶": 2430,
      "èİīèİīå¾Īä¼¤å¿ĥ": 2431,
      "å¥½åĲĥ": 2432,
      "çĪª": 2433,
      "è¢ĭåŃĲ": 2434,
      "æĲħ": 2435,
      "åĽ½çİĭ": 2436,
      "åı¸": 2437,
      "å¤§èĢĮ": 2438,
      "æ¯¯åŃĲ": 2439,
      "å£³": 2440,
      "æ´ŀéĩĮ": 2441,
      "äºĶ": 2442,
      "ä¹Ķ": 2443,
      "å¤§å¤§çļĦ": 2444,
      "æĪĳä»¬åİ»": 2445,
      "æĸ°çİ©åħ·": 2446,
      "åĬ¨çī©ä»¬": 2447,
      "ç²¾": 2448,
      "å¯»æ±Ĥå¸®åĬ©": 2449,
      "ä»ĸåĨ³å®ļ": 2450,
      "ç»Ĩ": 2451,
      "æĪĳä»¬éľĢè¦ģ": 2452,
      "é¼»åŃĲ": 2453,
      "æļ´": 2454,
      "è´Ŀæģ©": 2455,
      "ä»ĸä»¬å¾Īé«ĺåħ´": 2456,
      "æŁł": 2457,
      "è¿·è·¯": 2458,
      "èµ·æĿ¥äºĨ": 2459,
      "éĺŁ": 2460,
      "çĽĴåŃĲéĩĮ": 2461,
      "çªĹæĪ·": 2462,
      "ä»ĸä»¬ç»§ç»Ń": 2463,
      "çīĮ": 2464,
      "åĹ¡": 2465,
      "ä¸Ģç§į": 2466,
      "æĹĭ": 2467,
      "äºĨä¸Ģä¸ªæĸ°æľĭåıĭ": 2468,
      "å¥¹éĿŀå¸¸é«ĺåħ´": 2469,
      "å¤§é¸Ł": 2470,
      "éĹŃ": 2471,
      "èĴĤç±³çļĦ": 2472,
      "å¾ĹåĪ°": 2473,
      "è°Ī": 2474,
      "åĲįåı«èĴĤå§Ĩ": 2475,
      "äºĨå¾Īå¤ļ": 2476,
      "æľĿ": 2477,
      "æĭĮ": 2478,
      "è·ĳæŃ¥": 2479,
      "å¥¹åĳĬè¯ī": 2480,
      "åıĭåĸĦ": 2481,
      "é¡¹": 2482,
      "éķľ": 2483,
      "èºº": 2484,
      "èİĵ": 2485,
      "ä»ĸçĶ¨": 2486,
      "çĶ±": 2487,
      "ä»¥åīį": 2488,
      "çıį": 2489,
      "ç¥ŀå¥ĩçļĦ": 2490,
      "æĲħæĭĮ": 2491,
      "ä¸Ģä½į": 2492,
      "å¸Ĥ": 2493,
      "å¿µ": 2494,
      "æīĺ": 2495,
      "çĭ¼": 2496,
      "å¯Į": 2497,
      "è§£åĨ³": 2498,
      "æľĢåĸľæ¬¢çļĦçİ©åħ·": 2499,
      "ä»Ļå¥³": 2500,
      "èİīæĭī": 2501,
      "èĵĿèī²": 2502,
      "åŀĭ": 2503,
      "ç³Łç³ķ": 2504,
      "è®¡åĪĴ": 2505,
      "å®īéĿĻ": 2506,
      "è·ĳæĿ¥è·ĳåİ»": 2507,
      "æĤ²": 2508,
      "éĹ®å¥¹": 2509,
      "æ´ģ": 2510,
      "èĻ¹": 2511,
      "å½ĵä»ĸä»¬åĪ°è¾¾": 2512,
      "lly": 2513,
      "å°ģ": 2514,
      "å½©èĻ¹": 2515,
      "æĦīå¿«çļĦæĹ¶åħī": 2516,
      "æľŁ": 2517,
      "ä¸įè¡Į": 2518,
      "æĪĳä»¬ä¼ļ": 2519,
      "åĽ¾çīĩ": 2520,
      "èģĬ": 2521,
      "æĳĶåĢĴäºĨ": 2522,
      "åĴĮæ±¤å§Ĩ": 2523,
      "åĴĮå¥¹çļĦæľĭåıĭä»¬": 2524,
      "çĶµè§Ĩ": 2525,
      "å½¢çĬ¶": 2526,
      "ä¸ĭéĽ¨": 2527,
      "è¿ĻåıªçĮ«": 2528,
      "éĤ£æĺ¯ä»Ģä¹Ī": 2529,
      "çīĽå¥¶": 2530,
      "æ£ķ": 2531,
      "æ°´åĿĳ": 2532,
      "ç»ĻäºĨä»ĸ": 2533,
      "æ¡ĮåŃĲä¸Ĭ": 2534,
      "æ¤ħåŃĲ": 2535,
      "èŀĥèŁ¹": 2536,
      "éĥ½æĺ¯": 2537,
      "æľ¬ä¹¦": 2538,
      "åĮĸ": 2539,
      "è½»è½»": 2540,
      "ç§»åĬ¨": 2541,
      "æŀª": 2542,
      "åĩºäºĨä¸Ģä¸ªä¸»æĦı": 2543,
      "æĬ±ä½ı": 2544,
      "èĢģå¸Ī": 2545,
      "æľĹ": 2546,
      "åľ¨èĬ±åĽŃéĩĮ": 2547,
      "æģĲ": 2548,
      "å¥¹è§īå¾Ĺ": 2549,
      "æ°ĳ": 2550,
      "äºĨä¸ĭæĿ¥": 2551,
      "çĦ¶èĢĮ": 2552,
      "åį°": 2553,
      "ç®Ń": 2554,
      "ä½łä¼ļ": 2555,
      "ç»Ĵ": 2556,
      "æĬĬçĲĥ": 2557,
      "æ²¿": 2558,
      "å¿«ä¹ĲæĹ¶åħī": 2559,
      "éĤ£æĺ¯ä¸Ģä¸ª": 2560,
      "è£ħæ»¡": 2561,
      "å¥¹éĿŀå¸¸åĸľæ¬¢": 2562,
      "åľ¨å¤©ç©ºä¸Ń": 2563,
      "ä¸Ģä¸ªå¤§å¤§çļĦ": 2564,
      "å»ºéĢł": 2565,
      "æ¸ħçĲĨ": 2566,
      "èĴĤç±³è¯´": 2567,
      "è¿ĽæĿ¥": 2568,
      "å¦¹å¦¹": 2569,
      "åıĳçĶŁäºĨä¸Ģä»¶æĦıæĥ³ä¸įåĪ°çļĦäºĭæĥħ": 2570,
      "Ģè¯·": 2571,
      "æĿ¯åŃĲ": 2572,
      "éĤĢè¯·": 2573,
      "æĳĨ": 2574,
      "éĵģ": 2575,
      "ä¸§": 2576,
      "å¥¹ä¼ļ": 2577,
      "è¿İ": 2578,
      "æĪĳä¸įçŁ¥éģĵ": 2579,
      "ä¸ĭæ¬¡": 2580,
      "å¸¦åĽŀå®¶": 2581,
      "æ¹ĸ": 2582,
      "çĪªåŃĲ": 2583,
      "åĨħ": 2584,
      "è®°ä½ı": 2585,
      "ä½¿çĶ¨": 2586,
      "çĸ²": 2587,
      "ĠèĴĤå§Ĩ": 2588,
      "ä¸Ŀ": 2589,
      "åľ¨æłĳä¸Ĭ": 2590,
      "çİ©çļĦæĹ¶åĢĻ": 2591,
      "æıĲå§Ĩ": 2592,
      "åĬ¨çī©åĽŃ": 2593,
      "ç½ĳ": 2594,
      "åİ¨æĪ¿éĩĮ": 2595,
      "èł¢": 2596,
      "éª¨å¤´": 2597,
      "æĤ²ä¼¤": 2598,
      "å¾Īå¤§": 2599,
      "è¿ĻæĿ¡": 2600,
      "å°ıèĢģé¼ł": 2601,
      "è¿ĩäºĨ": 2602,
      "é«ĺé«ĺçļĦ": 2603,
      "Sa": 2604,
      "åĴĮä¸Ģä¸ª": 2605,
      "åĴĮæĪĳ": 2606,
      "åĲĥæİī": 2607,
      "åĲĳå¦Īå¦Ī": 2608,
      "ç§ĺå¯Ĩ": 2609,
      "®ä¸§": 2610,
      "éĤ£æł·": 2611,
      "æ²®ä¸§": 2612,
      "åĸľæ¬¢åľ¨å¤ĸéĿ¢": 2613,
      "éħ±": 2614,
      "åĴ¯": 2615,
      "éĤ»": 2616,
      "å¤ĸå¥Ĺ": 2617,
      "éĴ®": 2618,
      "åı¦ä¸Ģä¸ª": 2619,
      "æĦļ": 2620,
      "ä½Ĩæī¾ä¸įåĪ°": 2621,
      "è´µ": 2622,
      "æ²¿çĿĢ": 2623,
      "ä»ĸè§īå¾Ĺ": 2624,
      "æĪĳè¦ģ": 2625,
      "ä¸Ģä¸ªåĲįåı«èİīèİīçļĦ": 2626,
      "éħ¸": 2627,
      "çĹħ": 2628,
      "ä»ĸäºº": 2629,
      "è¯Ń": 2630,
      "çİ©ä»ĸçļĦçİ©åħ·": 2631,
      "å¦Īå¦ĪçļĦ": 2632,
      "è®©ä½ł": 2633,
      "éĺ²": 2634,
      "éĤ£åıªçĭĹ": 2635,
      "ç»¿èī²": 2636,
      "åĤ": 2637,
      "ä»ĸä»¬çĶ¨": 2638,
      "æĪĳçŁ¥éģĵ": 2639,
      "çİ©åħ·ä¸Ģèµ·çİ©": 2640,
      "ª¬": 2641,
      "æª¬": 2642,
      "ä¸Ģä»¶æĦıæĥ³ä¸įåĪ°çļĦäºĭæĥħ": 2643,
      "åºŃ": 2644,
      "çĶŁæĹ¥": 2645,
      "æĭ¿èµ°": 2646,
      "æŁłæª¬": 2647,
      "ç¬¼": 2648,
      "è°ħ": 2649,
      "ä¸Ģåıªå°ıé¸Ł": 2650,
      "åİŁè°ħ": 2651,
      "ä¸ĢæĬĬ": 2652,
      "åľ¨å¥¹çļĦ": 2653,
      "å±ķç¤ºäºĨ": 2654,
      "åħħæ»¡": 2655,
      "ä¸Ģä»¶æĦıæĥ³ä¸įåĪ°çļĦäºĭæĥħåıĳçĶŁäºĨ": 2656,
      "éĶħ": 2657,
      "ä¿®çĲĨ": 2658,
      "åģ¥åº·": 2659,
      "éĤ»å±ħ": 2660,
      "å¥¹æľĢåĸľæ¬¢çļĦ": 2661,
      "åľ¨ä»ĸ": 2662,
      "ç¿»": 2663,
      "èĥİ": 2664,
      "éĶģ": 2665,
      "æ¶Ĥ": 2666,
      "è§£éĩĬè¯´": 2667,
      "å¤©æ°Ķ": 2668,
      "éģį": 2669,
      "å¦Ĥæŀľä½ł": 2670,
      "è¹¦": 2671,
      "ä¼łæĿ¥": 2672,
      "å¹ħ": 2673,
      "æıĲèĴĤ": 2674,
      "èķ": 2675,
      "åĨ²": 2676,
      "é²ľ": 2677,
      "å®Ŀå®Ŀ": 2678,
      "çļĦå°ıçĶ·åŃ©": 2679,
      "åĪĻ": 2680,
      "è¯į": 2681,
      "ä»ĸä»¬çİ©": 2682,
      "åĴĮåħ¶ä»ĸ": 2683,
      "æĻ¨": 2684,
      "æĦļèł¢": 2685,
      "åĴĮå®¶äºº": 2686,
      "å¼ı": 2687,
      "è¡Ĺ": 2688,
      "æŀľæ±ģ": 2689,
      "ä½ľä¸º": 2690,
      "æĬĵä½ıå®ĥ": 2691,
      "é¼ĵæİĮ": 2692,
      "ä¸įåºĶè¯¥": 2693,
      "æķ´ä¸ª": 2694,
      "æķ´çĲĨ": 2695,
      "æį¢": 2696,
      "ä¿®å¥½": 2697,
      "æĹ©æĻ¨": 2698,
      "ä¸¢": 2699,
      "çļĦé¸Ł": 2700,
      "è¿ĻéĩĮ": 2701,
      "æĭľ": 2702,
      "éģĩåĪ°äºĨä¸Ģä¸ª": 2703,
      "åĴĮå¥¹": 2704,
      "æł¡": 2705,
      "æİĴ": 2706,
      "çļĦèĽ": 2707,
      "æµ´": 2708,
      "æĳĩäºĨ": 2709,
      "er": 2710,
      "çĦ¶åĲİè¯´": 2711,
      "ä»¤äºº": 2712,
      "æľīä¸Ģè¾Ĩ": 2713,
      "çĪ±ä½ł": 2714,
      "åĽŀæĿ¥äºĨ": 2715,
      "èĲ½å±±": 2716,
      "åľ¨è¿ĻéĩĮ": 2717,
      "è½®æµģ": 2718,
      "éĢĲ": 2719,
      "èĢģäºº": 2720,
      "æİ¢éĻ©": 2721,
      "æĬ¬å¤´": 2722,
      "æľīä¸Ģä¸ªå°ı": 2723,
      "åŃ¦æł¡": 2724,
      "çĥ¦": 2725,
      "æľµèĬ±": 2726,
      "çģĮæľ¨ä¸Ľ": 2727,
      "å°ıå¿ĥç¿¼ç¿¼åľ°": 2728,
      "åı¸æľº": 2729,
      "æĳĩäºĨæĳĩ": 2730,
      "ç±³çī¹": 2731,
      "å¼Ģè½¦": 2732,
      "å¾ĹæĽ´": 2733,
      "æłĳåı¶": 2734,
      "è·ĳåĲĳ": 2735,
      "å¸¦å¥¹": 2736,
      "å¸¦æĿ¥": 2737,
      "çĪ±çļĦ": 2738,
      "èī¾çİĽ": 2739,
      "å®ĿèĹı": 2740,
      "éĢŁåº¦": 2741,
      "æħ¢æħ¢": 2742,
      "æľīè®¸å¤ļ": 2743,
      "ä¸įä¹ħ": 2744,
      "å®ĥä¼ļ": 2745,
      "é¦Ĩ": 2746,
      "ä»ĸä»¬çľĭåĪ°": 2747,
      "å¤§è±¡": 2748,
      "ä½Ĩèİīèİī": 2749,
      "çĽ®": 2750,
      "è·ĳæİīäºĨ": 2751,
      "åı£è¢ĭ": 2752,
      "èĤī": 2753,
      "æ¡ĮåŃĲ": 2754,
      "æĺ¯å¾Īéĩįè¦ģçļĦ": 2755,
      "å¾·": 2756,
      "ç¾½": 2757,
      "æĭľè®¿": 2758,
      "ä¸Ģåľº": 2759,
      "æĥ«": 2760,
      "éĹªäº®": 2761,
      "æĹłèģĬ": 2762,
      "ç»¿èī²çļĦ": 2763,
      "æĹĭè½¬": 2764,
      "çĸ²æĥ«": 2765,
      "ç¾½æ¯Ľ": 2766,
      "my": 2767,
      "ä¸Ģé¢Ĺ": 2768,
      "å¾Īéĩįè¦ģ": 2769,
      "ä½Ĩæĺ¯æİ¥çĿĢ": 2770,
      "å®³ç¾ŀ": 2771,
      "æĲŃ": 2772,
      "âĢĿãĢĤ": 2773,
      "å®³æĢķäºĨ": 2774,
      "åĽŀå®¶çļĦè·¯": 2775,
      "é»ĳæļĹ": 2776,
      "èĦ¸ä¸Ĭ": 2777,
      "æĪĳä»¬ä¸Ģèµ·": 2778,
      "åĢŁ": 2779,
      "å®īå¨ľåĴĮæľ¬": 2780,
      "å¾Īå¥½å¥ĩ": 2781,
      "å¯¹èĩªå·±çļĦ": 2782,
      "èĭ±": 2783,
      "å¹¸è¿Ĳ": 2784,
      "ç¾İå¥½çļĦæĹ¶åħī": 2785,
      "Tw": 2786,
      "æ½": 2787,
      "åĲł": 2788,
      "åĴĮå®ĥ": 2789,
      "æĪĳåľ¨": 2790,
      "ä½łéľĢè¦ģ": 2791,
      "è¿ĩç¨ĭ": 2792,
      "æĦŁåĪ°æĥĬè®¶": 2793,
      "å¸®åĬ©å¦Īå¦Ī": 2794,
      "æ¯ĽèĮ¸": 2795,
      "æĽ´åĬłå°ıå¿ĥ": 2796,
      "æ¯ĽèĮ¸èĮ¸": 2797,
      "ä»ĸä»¬çŁ¥éģĵ": 2798,
      "ç»ĥ": 2799,
      "æ¬¢è¿İ": 2800,
      "èµ°è¿ĳ": 2801,
      "æŃĮæĽ²": 2802,
      "æīįèĥ½": 2803,
      "ä¸Ĭçİ©èĢį": 2804,
      "çĿĢå®ĥ": 2805,
      "çıŃ": 2806,
      "ä»İéĤ£ä»¥åĲİ": 2807,
      "çļĦçĶ·äºº": 2808,
      "ä¸Ģèµ·çİ©å¾Ĺå¾Īå¼Ģå¿ĥ": 2809,
      "åľ¨åħ¬åĽŃéĩĮçİ©èĢį": 2810,
      "å¥¹å¸ĮæľĽ": 2811,
      "ä»ĸä»¬åı¯ä»¥": 2812,
      "å½ĵèĴĤå§Ĩ": 2813,
      "èį¯": 2814,
      "æ¯¯": 2815,
      "æ²ī": 2816,
      "éĿ¢åīį": 2817,
      "çģµ": 2818,
      "æĲ¬": 2819,
      "è¿ĻåĿĹ": 2820,
      "å¤ļä¹Ī": 2821,
      "çŃĿ": 2822,
      "æī¾åĪ°ä¸Ģä¸ª": 2823,
      "é£İçŃĿ": 2824,
      "æ²Ļåıĳ": 2825,
      "ä¸Ģä¸ªåĲįåı«èĴĤå§ĨçļĦå°ıçĶ·åŃ©": 2826,
      "ï¼ĮâĢĿ": 2827,
      "çĪ¸çĪ¸è¯´": 2828,
      "æ¯ıå¤©éĥ½ä¼ļ": 2829,
      "èħ¿": 2830,
      "æ¶Īå¤±äºĨ": 2831,
      "çĮª": 2832,
      "èĭ¦": 2833,
      "åĵ¥åĵ¥": 2834,
      "å±ŀäºİ": 2835,
      "eet": 2836,
      "è¿·è·¯äºĨ": 2837,
      "Tweet": 2838,
      "åļ": 2839,
      "çīĻ": 2840,
      "æĦŁåĪ°å®³æĢķ": 2841,
      "çĮ«åĴĮ": 2842,
      "éĤ£å¤©æĻļä¸Ĭ": 2843,
      "èĥ¶": 2844,
      "çħ§çīĩ": 2845,
      "è§Ĥå¯Ł": 2846,
      "æ¬¢åĳ¼": 2847,
      "åĸľæ¬¢æķ´å¤©": 2848,
      "äºĨä¸Ģæ®µ": 2849,
      "çĶŁæ°ĶäºĨ": 2850,
      "æ´Ĺæ¾¡": 2851,
      "åģľæŃ¢äºĨ": 2852,
      "ç¥ĸæ¯į": 2853,
      "çļĦæĹ¶éĹ´": 2854,
      "ä»ĸå¼Ģå§ĭ": 2855,
      "åħį": 2856,
      "è½»è½»åľ°": 2857,
      "å¥¹çĶ¨": 2858,
      "åħ½": 2859,
      "åľ°éĿ¢": 2860,
      "åĩ»": 2861,
      "è¾£": 2862,
      "æĺİå¤©": 2863,
      "ç®±åŃĲéĩĮ": 2864,
      "ç´§ç´§åľ°": 2865,
      "å¥¥": 2866,
      "åıĶ": 2867,
      "ä½ĨæĪĳ": 2868,
      "å¥¶éħ": 2869,
      "æµ·è±": 2870,
      "ç§įåŃĲ": 2871,
      "å¸ĥæľĹ": 2872,
      "å¥¶éħª": 2873,
      "ä»ĸè¯ķåĽ¾": 2874,
      "æĸĵ": 2875,
      "æĸĳæĸĵ": 2876,
      "å½©æĸĳæĸĵ": 2877,
      "åŁİéĩĮ": 2878,
      "çĹĽ": 2879,
      "æĮīéĴ®": 2880,
      "ç´«": 2881,
      "è£Ĥ": 2882,
      "ç½Ĺ": 2883,
      "åĬ¡": 2884,
      "æĦŁåıĹ": 2885,
      "æ¯ıå½ĵ": 2886,
      "éķ¿çļĦ": 2887,
      "åºĬä¸Ĭ": 2888,
      "ºåŃĲ": 2889,
      "ä»ĸè¿ĺ": 2890,
      "æ£Ģ": 2891,
      "æĸ°äºĭçī©": 2892,
      "æ±łå¡ĺéĩĮ": 2893,
      "é»Ħèī²çļĦ": 2894,
      "æĩ": 2895,
      "ç£": 2896,
      "ä»ĸä»¬å¸ĮæľĽ": 2897,
      "æĦŁåĪ°å¾Īé«ĺåħ´": 2898,
      "æıĲç±³çļĦå¦Īå¦Ī": 2899,
      "è¿½éĢĲ": 2900,
      "é³Ħ": 2901,
      "æ£ĢæŁ¥": 2902,
      "æĦıæĢĿ": 2903,
      "å¿«äºĨ": 2904,
      "è¢«åĽ°": 2905,
      "é³į": 2906,
      "è¿ĺæľī": 2907,
      "çĥĤ": 2908,
      "å®Įç¾İ": 2909,
      "æĶ¶éĽĨ": 2910,
      "æļĸåĴĮ": 2911,
      "æ©Ļ": 2912,
      "åľ¨ä»ĸä»¬": 2913,
      "æľīä¸ĢæĿ¡": 2914,
      "æ°´ä¸Ń": 2915,
      "èĴĤå§ĨåĴĮèĭı": 2916,
      "åģľæŃ¢": 2917,
      "ä»ĸä»¬åİ»äºĨ": 2918,
      "ç¬¨": 2919,
      "ç¥Ŀ": 2920,
      "å¥¹éĹ®å¦Īå¦Ī": 2921,
      "è¿Ļæ£µæłĳ": 2922,
      "åĴĮå°ı": 2923,
      "å®ĥä»¬éĥ½": 2924,
      "çıł": 2925,
      "é¦Ļèķ": 2926,
      "é¦Ļèķī": 2927,
      "ä¸Ģè¾¹": 2928,
      "æĺ¯æĹ¶åĢĻ": 2929,
      "åĸĤ": 2930,
      "åįĹ": 2931,
      "åĵ¨": 2932,
      "èī¾åĪ©": 2933,
      "å°¼èİ«": 2934,
      "éĻĦè¿ĳçļĦ": 2935,
      "ä¸Ģåº§": 2936,
      "å¼Ĺ": 2937,
      "æŀļ": 2938,
      "çĥĺ": 2939,
      "çĶ°éĩİ": 2940,
      "æīĩ": 2941,
      "äºĨä¸Ģåıª": 2942,
      "æĦŁåĪ°èĩªè±ª": 2943,
      "ä½ıçĿĢ": 2944,
      "åŃ¦åĪ°äºĨä¸Ģä¸ª": 2945,
      "èİīèİīåĴĮæ±¤å§Ĩ": 2946,
      "è·¯ä¸Ĭ": 2947,
      "èİīèİīçļĦå¦Īå¦Īè¯´": 2948,
      "éĩİé¤Ĳ": 2949,
      "æºħ": 2950,
      "æĭ¼åĽ¾": 2951,
      "ç»ĥä¹ł": 2952,
      "åįĹçĵľ": 2953,
      "ä»ĸéĿŀå¸¸é«ĺåħ´": 2954,
      "æĭ©": 2955,
      "é©¾": 2956,
      "æ¼ī": 2957,
      "è¡¨çİ°": 2958,
      "éĢīæĭ©": 2959,
      "çļĦèĽĭ": 2960,
      "çİ©è¿Ļä¸ª": 2961,
      "ç»ķ": 2962,
      "ä½Ĩæľīä¸Ģå¤©": 2963,
      "çł´ç¢İ": 2964,
      "ä¸īå²": 2965,
      "éĤ£æ£µ": 2966,
      "å¿«éĢŁ": 2967,
      "èĽĩ": 2968,
      "æīĢä»¥å¥¹": 2969,
      "æ¯Ľç»Ĵ": 2970,
      "éģĩåĪ°äºĨä¸Ģåıª": 2971,
      "çļĦèĦ¸": 2972,
      "¤åŃĲ": 2973,
      "éĢĴ": 2974,
      "çĥ§": 2975,
      "é²ģ": 2976,
      "åıĺå¾ĹéĿŀå¸¸": 2977,
      "å°½åĬĽ": 2978,
      "è¿ĩç¨ĭä¸Ń": 2979,
      "ĿçĽĸ": 2980,
      "çļĦå¸®åĬ©": 2981,
      "çļĦä¸»äºº": 2982,
      "å¥³åĦ¿": 2983,
      "æĪ´ä¸Ĭ": 2984,
      "é¾Ł": 2985,
      "æĿĳ": 2986,
      "æĪĳå¾Ī": 2987,
      "ä¹Łå¾Īé«ĺåħ´": 2988,
      "éĽĦ": 2989,
      "å°ĸåı«": 2990,
      "æīĵæī«": 2991,
      "æ¬£": 2992,
      "éĤ£æĿ¡": 2993,
      "æµĨ": 2994,
      "åĺ¿": 2995,
      "çĭ¬èĩª": 2996,
      "èĩ³äºİ": 2997,
      "åĨľæ°ĳ": 2998,
      "æĺ¯æľĭåıĭ": 2999,
      "æĥĳ": 3000,
      "ç¬ĳå®¹": 3001,
      "èĲ¨ç±³": 3002,
      "è·³èµ·æĿ¥": 3003,
      "èĪĶ": 3004,
      "èĲ¨å§Ĩè¯´": 3005,
      "æĦ¿æľĽ": 3006,
      "èİİæĭī": 3007,
      "èĭ±éĽĦ": 3008,
      "åĽº": 3009,
      "æīĭéĩĮ": 3010,
      "æ³¡æ³¡": 3011,
      "ä»İæŃ¤ä»¥åĲİ": 3012,
      "éĹŃä¸Ĭ": 3013,
      "ä»Ķ": 3014,
      "ä»¥èĩ³äºİ": 3015,
      "è®©ä»ĸä»¬": 3016,
      "çŃĶåºĶäºĨ": 3017,
      "çİĭåŃĲ": 3018,
      "æĬ¥": 3019,
      "å¯¼": 3020,
      "å¤´ä¸Ĭ": 3021,
      "èĴĤå§ĨåĴĮèĲ¨å§Ĩ": 3022,
      "ä»İæľªè§ģè¿ĩ": 3023,
      "äººçļĦ": 3024,
      "çĶµå½±": 3025,
      "èµı": 3026,
      "èµ°è¿ĽäºĨ": 3027,
      "å¾Ĺå¾Īå¿«": 3028,
      "åĭºåŃĲ": 3029,
      "çĿ¡çĿĢ": 3030,
      "è¿«ä¸įåıĬå¾ħåľ°æĥ³": 3031,
      "èİīèİīçļĦæľĭåıĭ": 3032,
      "åħĭåĬĽ": 3033,
      "å¤ªå¤§äºĨ": 3034,
      "ä»ĸä»¬éĥ½ç¬ĳäºĨ": 3035,
      "ç´§å¼ł": 3036,
      "æķĳäºĨ": 3037,
      "ä¸Ģä¸ªåĲįåı«èĴĤå§ĨçļĦçĶ·åŃ©": 3038,
      "å·§åħĭåĬĽ": 3039,
      "å¥¹å¾Īé«ĺåħ´": 3040,
      "å¾Īéķ¿": 3041,
      "è®¾": 3042,
      "ä¸ºä»ĸ": 3043,
      "å¯¹å¾ħ": 3044,
      "åıĪé«ĺåħ´": 3045,
      "æ²¡æľīäºº": 3046,
      "æµĭ": 3047,
      "åħħæ»¡äºĨ": 3048,
      "åı¹": 3049,
      "å¥¹åĴĮå¦Īå¦Ī": 3050,
      "ä½łåĸľæ¬¢": 3051,
      "ç»Ļä»ĸä»¬": 3052,
      "åħ¶ä»ĸåĬ¨çī©": 3053,
      "çļĦäºĭ": 3054,
      "æľĪ": 3055,
      "ä¸įæķ¢": 3056,
      "èµ°è·¯": 3057,
      "ç¾¤": 3058,
      "æĸ¹æ³ķ": 3059,
      "in": 3060,
      "Ŀ´èĿ¶": 3061,
      "ä»ĸä¸įæĥ³": 3062,
      "æĺĵ": 3063,
      "å¼ķ": 3064,
      "åįĸ": 3065,
      "éĹ®ä»ĸ": 3066,
      "çļĦèĿ´èĿ¶": 3067,
      "ç»ĵäº¤": 3068,
      "èº«ä¸Ĭ": 3069,
      "åĺ´å·´": 3070,
      "ç»Ļå¦Īå¦Īçľĭ": 3071,
      "ä¸įå¥½çļĦ": 3072,
      "å¿Ĺ": 3073,
      "èĴĤå§Ĩå¾Īé«ĺåħ´": 3074,
      "èµ°çĿĢ": 3075,
      "çŁ¥éģĵä»ĸ": 3076,
      "é»Ħèī²": 3077,
      "ç¯®": 3078,
      "åĿļæŀľ": 3079,
      "åľ¨ä¸Ģä¸ªå°ıåŁİéĩĮ": 3080,
      "å®¢åİħ": 3081,
      "åľ¨ä»ĸçļĦ": 3082,
      "ä¸Ģä¸ªå°ı": 3083,
      "æĬĸ": 3084,
      "æŀķ": 3085,
      "åģļäºĨä¸Ģä¸ª": 3086,
      "éĹŃä¸Ĭçľ¼çĿĽ": 3087,
      "çļĦæłĳ": 3088,
      "å¥¹å¯¹": 3089,
      "åĵĪ": 3090,
      "éĻª": 3091,
      "è¡¨ç¤º": 3092,
      "æ¬£èµı": 3093,
      "ä»ĸæ²¡æľī": 3094,
      "åı¤": 3095,
      "å¥¹åıĳçİ°": 3096,
      "èİīèİīçŁ¥éģĵ": 3097,
      "çİ©å¾ĹéĿŀå¸¸å¼Ģå¿ĥ": 3098,
      "ä¹Įé¾Ł": 3099,
      "æłĳæŀĹéĩĮ": 3100,
      "å©": 3101,
      "ĮçĶŁ": 3102,
      "å¾Īåĸľæ¬¢": 3103,
      "å¾Īå¥½çļĦ": 3104,
      "çľĭåĪ°äºĨä¸Ģä¸ªå¤§": 3105,
      "éĻĮçĶŁ": 3106,
      "å¸¦ä»ĸ": 3107,
      "Fl": 3108,
      "ä»İæłĳä¸Ĭ": 3109,
      "ä¸Ģèµ·åľ¨": 3110,
      "å¥³åŃ©åı«": 3111,
      "çĳŀ": 3112,
      "æķ´æ´ģ": 3113,
      "çº¢çĲĥ": 3114,
      "èģĬå¤©": 3115,
      "ä»ĸä¹Ł": 3116,
      "ä»ĸä»¬æ²¡æľī": 3117,
      "èİīèİīè§īå¾Ĺ": 3118,
      "ä¸ĭéĿ¢": 3119,
      "ä¸Ģèµ·çİ©åĲ§": 3120,
      "éĤ£ä¸ªçĶ·åŃ©": 3121,
      "éĵĥ": 3122,
      "åĨĻçĿĢ": 3123,
      "åĪĽéĢł": 3124,
      "é³Ħé±¼": 3125,
      "ĻçļĦ": 3126,
      "çļĦçĶŁæ´»": 3127,
      "äºĨè§£": 3128,
      "åı²": 3129,
      "ä¸įé«ĺåħ´": 3130,
      "å¤§åĸĬ": 3131,
      "æĬ«": 3132,
      "å¹¶åľ¨": 3133,
      "å¸®åĬ©äºĨ": 3134,
      "åĲĥé¥Ń": 3135,
      "èĻ½": 3136,
      "çľŁæŃ£": 3137,
      "å®¢æ°Ķ": 3138,
      "åº¦è¿ĩäºĨå¾Īå¤ļå¿«ä¹ĲæĹ¶åħī": 3139,
      "é«ĺäºĨ": 3140,
      "éĽ¾": 3141,
      "çļĦèį": 3142,
      "å®ŀçİ°": 3143,
      "é¥¿äºĨ": 3144,
      "Sam": 3145,
      "ä»ĸå¸ĮæľĽ": 3146,
      "åĳ½": 3147,
      "çĮ©": 3148,
      "ç©ºä¸Ń": 3149,
      "åĳ¨åĽ´çļĦ": 3150,
      "èĻ½çĦ¶": 3151,
      "ĥåľ": 3152,
      "åĲ»": 3153,
      "ä¸įæĺİçĻ½": 3154,
      "ä¸įèĪĴæľį": 3155,
      "ä¼ļè¯´è¯Ŀ": 3156,
      "æŃ¢": 3157,
      "å§ĭç»Ī": 3158,
      "çĤ¹äºĨ": 3159,
      "æĶ¾åĽŀ": 3160,
      "çģ«ç®Ń": 3161,
      "æĵħ": 3162,
      "åŀĥåľ": 3163,
      "ä¸Ģä¸ªåĲįåı«èİīèİīçļĦå°ıå¥³åŃ©": 3164,
      "åŀĥåľ¾": 3165,
      "ä¸įå®¢æ°Ķ": 3166,
      "æ¬¢ä¹Ĳ": 3167,
      "å¹¶æī¿è¯º": 3168,
      "å¥¹çļĦå¦Īå¦ĪåĳĬè¯īå¥¹": 3169,
      "æĻļäºĨ": 3170,
      "çĪ¬ä¸ĬäºĨ": 3171,
      "è¯·æ±Ĥ": 3172,
      "å¢Ļä¸Ĭ": 3173,
      "çļĦæīĢæľī": 3174,
      "å¥¹å¼Ģå§ĭ": 3175,
      "æľīäºĨ": 3176,
      "å¤§åĪ©": 3177,
      "æĬĺ": 3178,
      "ä¸ºå¥¹": 3179,
      "æĦıå¤§åĪ©": 3180,
      "å¿«ä¹Ĳåľ°": 3181,
      "èĦ±": 3182,
      "åĨ°ç®±": 3183,
      "åĽ°æĥĳ": 3184,
      "¡èĲĦ": 3185,
      "çĽĺåŃĲ": 3186,
      "åĲĦç§į": 3187,
      "æĢ§": 3188,
      "åĳĢ": 3189,
      "ç»Ļå®ĥ": 3190,
      "çĶŁçĹħ": 3191,
      "éĴĪ": 3192,
      "ç¼¸": 3193,
      "çİĽä¸½": 3194,
      "é½Ĳ": 3195,
      "ä»ĸéĿŀå¸¸åĸľæ¬¢": 3196,
      "åĴĮèĴĤå§Ĩ": 3197,
      "æĥ³äºĨä¸Ģä¸ĭ": 3198,
      "å¾Ĺå¥½": 3199,
      "æĬĬçİ©åħ·": 3200,
      "æĭ¿èµ°äºĨ": 3201,
      "åıĳçİ°äºĨä¸Ģåıª": 3202,
      "æŁĶè½¯çļĦ": 3203,
      "åĤ»": 3204,
      "ä»Ķç»Ĩ": 3205,
      "¬è¡": 3206,
      "ä¸Ģçīĩ": 3207,
      "è¡¬è¡": 3208,
      "è¡Įé©¶": 3209,
      "è¡£æŁľ": 3210,
      "åįĪé¤Ĳ": 3211,
      "è¡¬è¡«": 3212,
      "å¤¹": 3213,
      "å¥¹éĥ½ä¼ļ": 3214,
      "ä»ĸä»¬æĢ»æĺ¯": 3215,
      "çĭĤ": 3216,
      "éĤ£ä¸ªå¤§": 3217,
      "æıĲç±³åĸľæ¬¢": 3218,
      "æľīä¸Ģåıªå°ı": 3219,
      "åĽŀçŃĶéģĵ": 3220,
      "æĵħéķ¿": 3221,
      "dy": 3222,
      "ker": 3223,
      "å°ıèĬ±": 3224,
      "èĢ³": 3225,
      "è¯ļå®ŀ": 3226,
      "è²": 3227,
      "èĸ": 3228,
      "å¥¹è¯ķåĽ¾": 3229,
      "å¯Ĵ": 3230,
      "åºĨ": 3231,
      "å®¶åºŃ": 3232,
      "èµ°è¿ĩæĿ¥": 3233,
      "è°ĥ": 3234,
      "å°±ä¼ļ": 3235,
      "å°±åı¯ä»¥": 3236,
      "æīĭå¥Ĺ": 3237,
      "ue": 3238,
      "å¥¹æĦıè¯ĨåĪ°": 3239,
      "æĹ¢": 3240,
      "å¥½åĲĹ": 3241,
      "èĥĮ": 3242,
      "åĩºæĿ¥äºĨ": 3243,
      "æĮĩçĿĢ": 3244,
      "éĺ³åħīæĺİåªļçļĦæĹ¥åŃĲ": 3245,
      "æµĨæŀľ": 3246,
      "è²Į": 3247,
      "äºĨåıĪ": 3248,
      "æĥ³çİ©": 3249,
      "æł¼": 3250,
      "é¥°": 3251,
      "çľĭèµ·æĿ¥åĥı": 3252,
      "éĢĤåĲĪ": 3253,
      "äº²çĪ±çļĦ": 3254,
      "æĦıå¤§åĪ©éĿ¢": 3255,
      "å¥¹æľīä¸Ģä¸ª": 3256,
      "å®ł": 3257,
      "æĥ³çŁ¥éģĵ": 3258,
      "é£ŀåĪ°": 3259,
      "å°±èĥ½": 3260,
      "çľĭçĿĢå®ĥ": 3261,
      "éĩĮéĿ¢æľīä»Ģä¹Ī": 3262,
      "ä¿®å¥½äºĨ": 3263,
      "åĽ´å·¾": 3264,
      "çİ©å¾Ĺå¼Ģå¿ĥ": 3265,
      "åĩºçİ°äºĨ": 3266,
      "çİ¯": 3267,
      "å°ıçļĦ": 3268,
      "å¤ªéĩį": 3269,
      "è§ģåĪ°": 3270,
      "æľīä¸Ģä¸ªå¥³åŃ©åı«": 3271,
      "éĤ£åıªé¸Ł": 3272,
      "åĮ»éĻ¢": 3273,
      "ä¸Ģæ£µå¤§æłĳ": 3274,
      "å¾ĪçĶŁæ°Ķ": 3275,
      "åĬ±": 3276,
      "èĴĤå§ĨéĿŀå¸¸é«ĺåħ´": 3277,
      "æĻ¯": 3278,
      "æ¡ĥ": 3279,
      "æ¡Ī": 3280,
      "ä¸Ģä¸ªåĲįåı«èĭı": 3281,
      "ä½ıåľ¨ä¸Ģä¸ªå¤§": 3282,
      "æĻ®éĢļ": 3283,
      "å¯Įæľī": 3284,
      "æĬ«èĲ¨": 3285,
      "ob": 3286,
      "è¶³å¤Ł": 3287,
      "é½¿": 3288,
      "çļĦèĽĭç³ķ": 3289,
      "å«": 3290,
      "å®½": 3291,
      "å¾Ĺå¾Īé«ĺ": 3292,
      "ç¬ĳäºĨèµ·æĿ¥": 3293,
      "é¬": 3294,
      "å¥¹æĢ»æĺ¯": 3295,
      "å¤§çŁ³å¤´": 3296,
      "ç»Ļèİīèİī": 3297,
      "å¹¶æ²¡æľī": 3298,
      "å¯¹æĸ¹": 3299,
      "è±Ĩ": 3300,
      "å±ĭéĩĮ": 3301,
      "å¥¹åĸľæ¬¢åĴĮå¥¹çļĦæľĭåıĭä»¬": 3302,
      "æĪĲåĬŁåľ°": 3303,
      "çĤ¹äºĨçĤ¹å¤´": 3304,
      "olly": 3305,
      "å°ıéķĩ": 3306,
      "è¿ĻæĬĬ": 3307,
      "å¤§ç¬ĳ": 3308,
      "å¤ªæĻļäºĨ": 3309,
      "çľŁçļĦå¾Ī": 3310,
      "æľºåĻ¨äºº": 3311,
      "ä½łæĺ¯ä¸ª": 3312,
      "æłĭ": 3313,
      "ä¸ĭåİ»": 3314,
      "åĩī": 3315,
      "åĵİ": 3316,
      "æ´Ĵ": 3317,
      "å®ĿçŁ³": 3318,
      "is": 3319,
      "ä»ĸå¯¹": 3320,
      "ä»ĸæĢ»æĺ¯": 3321,
      "å¥¹æĦŁåĪ°": 3322,
      "è¯¯": 3323,
      "ä¸Ĭåİ»": 3324,
      "çĿĢå°¾å·´": 3325,
      "éĿŀå¸¸æ¼Ĥäº®": 3326,
      "æ²¡äºĭ": 3327,
      "æŃ£ç¡®": 3328,
      "ç«ł": 3329,
      "ç¤¼è²Į": 3330,
      "gg": 3331,
      "å¥¹åı¯ä»¥": 3332,
      "åľ¨å¥¹": 3333,
      "åĩºäºĨä¸Ģä¸ª": 3334,
      "åĳĬè¯īäºĨ": 3335,
      "æĬ±çĿĢ": 3336,
      "è§Ĥçľĭ": 3337,
      "æ³¥åľŁ": 3338,
      "é©¾é©¶": 3339,
      "æ¨": 3340,
      "æĿĤ": 3341,
      "è¿Ļæł¹": 3342,
      "æŃ»": 3343,
      "èĪª": 3344,
      "èĢĮæĺ¯": 3345,
      "èĮ¶": 3346,
      "æ¼Ķå¥ı": 3347,
      "äºĶå½©æĸĳæĸĵ": 3348,
      "åħ±": 3349,
      "åľ¨å®¶éĩĮ": 3350,
      "ä¸Ģä¸ªæĸ°": 3351,
      "åį´": 3352,
      "æĪĳçļĦçİ©åħ·": 3353,
      "æĪĲä¸ºæľĭåıĭ": 3354,
      "åıĺå¾ĹæĽ´": 3355,
      "é»Ľ": 3356,
      "éļıçĿĢ": 3357,
      "¬èıľ": 3358,
      "çİ©çĲĥ": 3359,
      "æĥ³åĲĥ": 3360,
      "åı«èĴĤå§Ĩ": 3361,
      "è·ĳè¿ĩåİ»": 3362,
      "æ¸´": 3363,
      "è·³åĪ°": 3364,
      "å¥¹åľ¨åľ°ä¸Ĭ": 3365,
      "ä½Ĩå¥¹çŁ¥éģĵ": 3366,
      "èľĤèľľ": 3367,
      "åı¯æĢķçļĦ": 3368,
      "æħ¢æħ¢åľ°": 3369,
      "ä»ĸä»¬åĲ¬åĪ°": 3370,
      "æĪĳæī¾åĪ°äºĨ": 3371,
      "è¿Ļé¢Ĺ": 3372,
      "çİ©èĢįåĴĮ": 3373,
      "èĬ±åĦ¿": 3374,
      "åĨįè§ģ": 3375,
      "åº¦è¿ĩäºĨç¾İå¥½çļĦæĹ¶åħī": 3376,
      "æķ£æŃ¥æĹ¶": 3377,
      "åĽ°éļ¾": 3378,
      "è¶³çĲĥ": 3379,
      "çīĻé½¿": 3380,
      "mittens": 3381,
      "æľīå¤§": 3382,
      "æĭĽ": 3383,
      "åľ°æ¯¯": 3384,
      "éĻ·": 3385,
      "æīĭæĮĩ": 3386,
      "èĥŀ": 3387,
      "ç¾İåĳ³çļĦé£Łçī©": 3388,
      "åĴ¬äºĨä¸Ģåı£": 3389,
      "æ¸©æļĸçļĦ": 3390,
      "æģĲé¾Ļ": 3391,
      "å¯ĴåĨ·": 3392,
      "é»Ľè¥¿": 3393,
      "å¥¹åĲ¬åĪ°": 3394,
      "åľ¨åĵªéĩĮ": 3395,
      "ä»ĸä»¬æī¾åĪ°äºĨ": 3396,
      "å°ıäºĨ": 3397,
      "å¤§é±¼": 3398,
      "æ¬¢ç¬ĳ": 3399,
      "å¾Ĺå¾Īå¥½": 3400,
      "æĸ¹å¼ı": 3401,
      "åĵŃäºĨèµ·æĿ¥": 3402,
      "è´Ŀæĭī": 3403,
      "ä¿®å¤į": 3404,
      "äºĴçĽ¸å¸®åĬ©": 3405,
      "çªĹå¤ĸ": 3406,
      "çĪ¬ä¸Ĭåİ»": 3407,
      "æĪĳä¸į": 3408,
      "çľĭä¹¦": 3409,
      "å¥½å¿ĥ": 3410,
      "åī§": 3411,
      "çĽĽ": 3412,
      "æĳ©": 3413,
      "èģªæĺİçļĦèĢģ": 3414,
      "éĤ£åĿĹ": 3415,
      "æĸĩ": 3416,
      "ä¸Ģèµ·åĪĨäº«": 3417,
      "ä¸ºèĩªå·±çļĦ": 3418,
      "èĥ½å¸®åĬ©": 3419,
      "æı¡": 3420,
      "éģĩåĪ°": 3421,
      "åĽŀäºĨå®¶": 3422,
      "å¼ĹéĽ·": 3423,
      "å¤ªéĩįäºĨ": 3424,
      "ä»ĸå¾Ī": 3425,
      "æĥ³åĩºäºĨä¸Ģä¸ªä¸»æĦı": 3426,
      "æĪĳä»¬å¿ħé¡»": 3427,
      "å½ĵèİīèİī": 3428,
      "èĭıè¯´": 3429,
      "æĹłè®º": 3430,
      "èĩªç§": 3431,
      "ç»§ç»Ńçİ©": 3432,
      "å¤Łä¸įåĪ°": 3433,
      "å¾Īéļ¾": 3434,
      "æĶ¹": 3435,
      "ç¼Ŀ": 3436,
      "çĿ¡çĿĢäºĨ": 3437,
      "åĪļ": 3438,
      "å¥½äºĭ": 3439,
      "åİ»çĿ¡è§ī": 3440,
      "æ¯ıæ¬¡": 3441,
      "æ¯Ķå¦Ĥ": 3442,
      "çĪ¬æłĳ": 3443,
      "è¸©": 3444,
      "ç½ĲåŃĲ": 3445,
      "å¾Īéķ¿æĹ¶éĹ´": 3446,
      "ä¼ļåıĳçĶŁ": 3447,
      "çĦ¶åĲİä»ĸä»¬": 3448,
      "é£ŀä¸ĭæĿ¥": 3449,
      "èİīèİīåĴĮå¥¹çļĦæľĭåıĭä»¬": 3450,
      "æİīä¸ĭæĿ¥": 3451,
      "ä½ıåľ¨ä¸Ģä¸ªå°ı": 3452,
      "é¬¼": 3453,
      "¨Ģ": 3454,
      "ļåŃĲ": 3455,
      "ä¸ĺ": 3456,
      "é¸½åŃĲ": 3457,
      "è·³è¿Ľ": 3458,
      "è¿Ļåıªå°ıé¸Ł": 3459,
      "åİŁæĿ¥": 3460,
      "çľĭåĪ°ä¸Ģæ£µå¤§æłĳ": 3461,
      "ä¸Ģéĺµå¤§": 3462,
      "é¡¹éĵ¾": 3463,
      "ä»ĸæĺ¯": 3464,
      "äºĨå¥¹çļĦ": 3465,
      "åı¯éĿł": 3466,
      "åĩ¶": 3467,
      "æįŁ": 3468,
      "èĥĸ": 3469,
      "æĬĬå®ĥæĶ¾åľ¨": 3470,
      "æĿ°çĳŀ": 3471,
      "éĽªäºº": 3472,
      "éĻĮçĶŁäºº": 3473,
      "åıį": 3474,
      "éĿŀå¸¸æľī": 3475,
      "åĸľæ¬¢åĲĥ": 3476,
      "åħ¬åĽŃéĩĮ": 3477,
      "åĲ¬å¦Īå¦ĪçļĦè¯Ŀ": 3478,
      "æł·åŃĲ": 3479,
      "æĪĳçļĦæľĭåıĭ": 3480,
      "æī¾åĪ°çļĦ": 3481,
      "æĳĩçĿĢå°¾å·´": 3482,
      "ä¸įåĲĮçļĦ": 3483,
      "èº²åľ¨": 3484,
      "åı¤èĢģ": 3485,
      "èĸĦ": 3486,
      "om": 3487,
      "å¤ľ": 3488,
      "å¤§çĨĬ": 3489,
      "å¿ĥæĥ³": 3490,
      "è§¦": 3491,
      "èĩªçĶ±": 3492,
      "éľĩ": 3493,
      "çĲĨåıĳ": 3494,
      "å·¥åħ·": 3495,
      "åĲłåı«": 3496,
      "op": 3497,
      "ä»ĸå¦Īå¦Ī": 3498,
      "ä½İ": 3499,
      "å®Ī": 3500,
      "æľīå¤ļ": 3501,
      "éĤ£è¾Ĩ": 3502,
      "åģļåĪ°": 3503,
      "çĶ¨æĿ¥": 3504,
      "æīĢæľīçļĦæľĭåıĭ": 3505,
      "åĪ¶éĢł": 3506,
      "åĬªåĬĽåľ°": 3507,
      "èĳ¡èĲĦ": 3508,
      "æĩĴ": 3509,
      "ä¸Ģå®ļ": 3510,
      "ä¸Ģä¼ļåĦ¿": 3511,
      "ä»ĸåı¯ä»¥": 3512,
      "èİīèİīåĽŀçŃĶ": 3513,
      "èİīèİīéĿŀå¸¸åħ´å¥ĭ": 3514,
      "åİ»çİ©": 3515,
      "ä¸Ģåıªé¸Ł": 3516,
      "éĺħ": 3517,
      "çªĿ": 3518,
      "æıĲç±³çļĦçĶ·åŃ©": 3519,
      "ç©¿è¿ĩ": 3520,
      "ä¹°äºĨ": 3521,
      "åº§ä½į": 3522,
      "å¹³éĿĻ": 3523,
      "è¿ĩä¸ĬäºĨå¹¸ç¦ıçļĦçĶŁæ´»": 3524,
      "Mittens": 3525,
      "è¨Ģ": 3526,
      "ä»ĸä»¬ç¬ĳçĿĢ": 3527,
      "èĦĳ": 3528,
      "çľĭèµ·æĿ¥å¾Īä¼¤å¿ĥ": 3529,
      "æīĵå¼Ģå®ĥ": 3530,
      "ä¾Ľ": 3531,
      "æĦŁåĪ°éĿŀå¸¸èĩªè±ª": 3532,
      "ä¸¤ä¸ªæľĭåıĭ": 3533,
      "ä»ĸåıĳçİ°": 3534,
      "ä»ĸåĸľæ¬¢åľ¨": 3535,
      "ä»ĸéĥ½ä¼ļ": 3536,
      "æĥ³è±¡": 3537,
      "å¤ªå¤ª": 3538,
      "ä¹Ĳäºİ": 3539,
      "äºİæĺ¯åĨ³å®ļ": 3540,
      "åĽŀå®¶çļĦæĹ¶åĢĻ": 3541,
      "éĤ£éĩĮæĹ¶": 3542,
      "ä½łçļĦçİ©åħ·": 3543,
      "è¿Ļæĺ¯æĪĳçļĦ": 3544,
      "æµ·æ´ĭ": 3545,
      "å®īåħ¨äºĨ": 3546,
      "å®īå¨ľè¯´": 3547,
      "ç»ıåİĨ": 3548,
      "åº¦è¿ĩäºĨæĦīå¿«çļĦä¸Ģå¤©": 3549,
      "çİ©çİ©åħ·åĴĮ": 3550,
      "¢å¤į": 3551,
      "ä¸Ģåı£": 3552,
      "ä»ĸå¾Īé«ĺåħ´": 3553,
      "å°¤": 3554,
      "çİ©äºĨä¸Ģæķ´å¤©": 3555,
      "éĺ´": 3556,
      "åĳĬè¯īå¦Īå¦Ī": 3557,
      "åĮ¹": 3558,
      "æģ¢å¤į": 3559,
      "æķ´å¤©éĥ½": 3560,
      "å·¨å¤§": 3561,
      "åĬŀæ³ķ": 3562,
      "æ±¤å§ĨåĴĮèİīèİī": 3563,
      "æĶ¶æĭ¾å¥½": 3564,
      "æłĳæŀĿä¸Ĭ": 3565,
      "äºĨä¸Ģæ®µæĹ¶éĹ´": 3566,
      "ie": 3567,
      "è®¨": 3568,
      "å¥¹çļĦçĪ¶æ¯į": 3569,
      "ç©´": 3570,
      "èĢĮä¸įæĺ¯": 3571,
      "æĻļé¥Ń": 3572,
      "åı£åĵ¨": 3573,
      "å®īåħ¨åľ°": 3574,
      "å®łçī©": 3575,
      "å°¤åħ¶": 3576,
      "çļĦæķħäºĭ": 3577,
      "å¥¹èµ°åĪ°": 3578,
      "å°ıèĻ«åŃĲ": 3579,
      "å¥¹çļĦçĪ¸çĪ¸": 3580,
      "å½ĵä½ł": 3581,
      "å¼Ģå§ĭåľ¨": 3582,
      "æĮĳ": 3583,
      "èĦĨ": 3584,
      "å®ĮæĪĲäºĨ": 3585,
      "è¡¨æĥħ": 3586,
      "ä»ĸä»¬ä¸Ģèµ·çİ©å¾Ĺå¾Īå¼Ģå¿ĥ": 3587,
      "ä½łåľ¨åģļä»Ģä¹Ī": 3588,
      "çļĦèįī": 3589,
      "Ġä»ĸä»¬": 3590,
      "çļĦä¹¦": 3591,
      "çİ©æįīè¿·èĹı": 3592,
      "è¿Ļæľ¬ä¹¦": 3593,
      "ä½Ĩè¦ģå°ıå¿ĥ": 3594,
      "æĪĳä»¬è¦ģ": 3595,
      "é¢Ĩ": 3596,
      "çł´äºĨ": 3597,
      "çĹĴ": 3598,
      "æ¶Īéĺ²": 3599,
      "éĶĻè¯¯": 3600,
      "å¹´è½»": 3601,
      "çĪ·çĪ·": 3602,
      "åĵİåĳĢ": 3603,
      "çļĦæľĢ": 3604,
      "çļĦæľĭåıĭä»¬": 3605,
      "äºĨåĩºæĿ¥": 3606,
      "åĴĮèĩªè±ª": 3607,
      "èİīèİīçľĭåĪ°": 3608,
      "ä¸įåľ¨": 3609,
      "ä½Ĩå·²ç»ı": 3610,
      "å¤ªé«ĺäºĨ": 3611,
      "æħ°": 3612,
      "åĽŀåĪ°äºĨå®¶": 3613,
      "çĵ¶åŃĲ": 3614,
      "åı£è¢ĭéĩĮ": 3615,
      "åºĨç¥Ŀ": 3616,
      "å°¤åħ¶æĺ¯": 3617,
      "ä»£": 3618,
      "ä»½": 3619,
      "ä»ĸæĦıè¯ĨåĪ°": 3620,
      "ä½ĨçĦ¶åĲİ": 3621,
      "ä½Ĩè¿ĺæĺ¯": 3622,
      "è·³åİ»": 3623,
      "èĻĳ": 3624,
      "è´Ŀå£³": 3625,
      "èĨĿçĽĸ": 3626,
      "æĢĿèĢĥäºĨä¸Ģä¸ĭ": 3627,
      "ï¼Į\"": 3628,
      "å¥¹çľĭåĪ°ä¸Ģåıª": 3629,
      "æĪĺ": 3630,
      "ä¸Ģä¸ªéĺ³åħīæĺİåªļçļĦæĹ¥åŃĲ": 3631,
      "èĩĤ": 3632,
      "è¡¡": 3633,
      "éĵĽ": 3634,
      "ä¸įèĥ½åĨį": 3635,
      "æŀķå¤´": 3636,
      "éĵĥéĵĽ": 3637,
      "çļĦæīĭ": 3638,
      "åı·": 3639,
      "å¥¹æ²¡æľī": 3640,
      "å¥¹çļĦå¼Łå¼Ł": 3641,
      "é¸¦": 3642,
      "æ³ī": 3643,
      "ä¹Łåĸľæ¬¢": 3644,
      "åĴĮä»ĸçļĦæľĭåıĭ": 3645,
      "åĵįäº®çļĦ": 3646,
      "æĪĲäºĨæľĭåıĭ": 3647,
      "çķĻä¸ĭ": 3648,
      "å¿ĺäºĨ": 3649,
      "åĲ¬ä»İäºĨ": 3650,
      "ä»ĸä»¬éľĢè¦ģ": 3651,
      "åĸľæ¬¢åĴĮä»ĸçļĦæľĭåıĭä»¬": 3652,
      "èĩ´": 3653,
      "è¿Ļä¸ªçİ©åħ·": 3654,
      "è´§": 3655,
      "åħ¶ä¸Ń": 3656,
      "èĲ½åľ¨": 3657,
      "å¹³è¡¡": 3658,
      "æĹħç¨ĭ": 3659,
      "åĽŀåĪ°å®¶åĲİ": 3660,
      "¡åŃĲ": 3661,
      "´å°": 3662,
      "å°´å°": 3663,
      "å°ıé±¼": 3664,
      "éĿŀå¸¸å®³æĢķ": 3665,
      "çĲ´": 3666,
      "åį·": 3667,
      "æĦŁåĪ°éĿŀå¸¸é«ĺåħ´": 3668,
      "åģļçļĦ": 3669,
      "æķħæĦı": 3670,
      "æīĵå¼ĢéĹ¨": 3671,
      "ä½Ĩä»ĸçŁ¥éģĵ": 3672,
      "éªĳèĩªè¡Įè½¦": 3673,
      "èµ¢å¾ĹäºĨ": 3674,
      "æ··åĲĪ": 3675,
      "å°´å°¬": 3676,
      "åĸµ": 3677,
      "ä¼´": 3678,
      "å¥½ä¸»æĦı": 3679,
      "æĪĳä»¬åºĶè¯¥": 3680,
      "ä¹Łåı¯ä»¥": 3681,
      "éĢı": 3682,
      "åĲ¬äºĨ": 3683,
      "éķ¿éķ¿çļĦ": 3684,
      "åĪĨäº«äºĨ": 3685,
      "åĨįä¹Łä¸į": 3686,
      "ç¢İçīĩ": 3687,
      "ç«Ļèµ·æĿ¥": 3688,
      "ä¸Ģä¸ªå¤§å¤§çļĦæĭ¥æĬ±": 3689,
      "æľĪäº®": 3690,
      "ä¸Ģé¡¶": 3691,
      "èİīèİīç¬ĳçĿĢè¯´": 3692,
      "ä¼ļå¾Īæľīè¶£": 3693,
      "çĶŁçī©": 3694,
      "çĮĽ": 3695,
      "é¡º": 3696,
      "åıĳçĶŁçļĦäºĭæĥħ": 3697,
      "èĤ¥": 3698,
      "ç¯±": 3699,
      "è¿«ä¸įåıĬå¾ħåľ°æĥ³è¦ģ": 3700,
      "Bun": 3701,
      "å½©èī²éĵħç¬Ķ": 3702,
      "ä¸Ģéĺµå¤§é£İåĲ¹": 3703,
      "ä¹ĲäºİåĬ©": 3704,
      "³è": 3705,
      "çļĦçŁ³å¤´": 3706,
      "å¦®": 3707,
      "ä»ĸä»¬åŃ¦ä¼ļäºĨ": 3708,
      "èİīèİīå¾Īå®³æĢķ": 3709,
      "æĿ¥èĩª": 3710,
      "æĦŁåĪ°å¿«ä¹Ĳ": 3711,
      "çĶ¨ä»ĸçļĦ": 3712,
      "ç²īçº¢èī²": 3713,
      "æ¢¦æĥ³": 3714,
      "æľīä¸Ģä¸ªåĲįåı«èĴĤå§ĨçļĦ": 3715,
      "åĺ´éĩĮ": 3716,
      "æķħäºĭç»ĵæĿŁäºĨ": 3717,
      "³èĨĬ": 3718,
      "ä»ĸä»¬æĭ¥æĬ±": 3719,
      "èİīèİīå¼Ģå§ĭ": 3720,
      "èİīèİīä¸įæĥ³": 3721,
      "çĶ²": 3722,
      "éĿ¢åĽ¢": 3723,
      "åħīæ»ĳ": 3724,
      "æľ¨å¤´": 3725,
      "æĬĬå®ĥå¸¦": 3726,
      "ä¼ĳæģ¯ä¸Ģä¸ĭ": 3727,
      "åıĪé«ĺåħ´èµ·æĿ¥äºĨ": 3728,
      "īå¦": 3729,
      "ä¸¥": 3730,
      "èĢĢ": 3731,
      "åĨµ": 3732,
      "èĴĤå§Ĩå¾Īä¼¤å¿ĥ": 3733,
      "åįĩ": 3734,
      "éĺ¿": 3735,
      "çļĦè´": 3736,
      "èĻİ": 3737,
      "åħ³å¿ĥ": 3738,
      "ä¸Ģä¸ªå¤§æĭ¥æĬ±": 3739,
      "åİ»åķĨåºĹä¹°": 3740,
      "åıĮèĥŀ": 3741,
      "å«īå¦": 3742,
      "èĩªç§ģ": 3743,
      "åıĮèĥŀèĥİ": 3744,
      "å«īå¦Ĵ": 3745,
      "his": 3746,
      "å¥¹æľīä¸Ģ": 3747,
      "çİ©æ¸¸æĪı": 3748,
      "å¿«çļĦ": 3749,
      "åģļé¥Ń": 3750,
      "éĹ®å¦Īå¦Ī": 3751,
      "è¿ĺç»ĻäºĨ": 3752,
      "è´Ń": 3753,
      "å®Ŀè´Ŀ": 3754,
      "è·Łåīįè¯´": 3755,
      "ä¸¢å¤±": 3756,
      "éĺħè¯»": 3757,
      "Whis": 3758,
      "py": 3759,
      "Īç¥": 3760,
      "ä»ĸæĥ³è¦ģ": 3761,
      "åı¼": 3762,
      "ä»ĸä»¬åıĳçİ°": 3763,
      "ç±³ç±³": 3764,
      "éĹ¹": 3765,
      "è·ĳå¾Ĺ": 3766,
      "å±Ģ": 3767,
      "éĤ£ä¸ªçĲĥ": 3768,
      "æľīè¶£çļĦäºĭæĥħ": 3769,
      "éº»": 3770,
      "ä½łä»¬çļĦ": 3771,
      "ä¸įæĺ¯æķħæĦı": 3772,
      "ç¥ŀç§ĺ": 3773,
      "åĲīå°Ķ": 3774,
      "ä¸ĽæŀĹ": 3775,
      "èŃ¦å¯Ł": 3776,
      "èĶ¬èıľ": 3777,
      "åĹ¡åĹ¡": 3778,
      "Whisker": 3779,
      "å¥¹å¦Īå¦Īè¯´": 3780,
      "ä¸Ģä¸ªäºº": 3781,
      "ä¼ŀ": 3782,
      "ä½Ĩæİ¥çĿĢ": 3783,
      "æľīä¸Ģæ£µ": 3784,
      "éģ¥": 3785,
      "å¤ªå°ıäºĨ": 3786,
      "å±ĭåŃĲ": 3787,
      "é¡½": 3788,
      "æĻº": 3789,
      "ä½łçļĦæľĭåıĭ": 3790,
      "ç²ĺ": 3791,
      "åİī": 3792,
      "çļĦä¸Ģ": 3793,
      "ä»ĸä»¬çľĭçĿĢ": 3794,
      "æĥ³å¿µ": 3795,
      "è¶ħ": 3796,
      "è·³æĿ¥": 3797,
      "æīĵçĶµè¯Ŀ": 3798,
      "åĬ¨çī©éĥ½": 3799,
      "å±±ä¸ĺ": 3800,
      "åº¦è¿ĩäºĨè®¸å¤ļ": 3801,
      "åĵįå£°": 3802,
      "ç¾İå¥½çļĦä¸Ģå¤©": 3803,
      "å®¹æĺĵ": 3804,
      "ç²Ĺé²ģ": 3805,
      "Ĩåĵ": 3806,
      "åĴĨåĵ": 3807,
      "éĤ£é¢Ĺ": 3808,
      "å¥½å¥½": 3809,
      "çİ©åħ·åĴĮ": 3810,
      "è°·": 3811,
      "æĦŁè§īæĽ´å¥½": 3812,
      "æĳ¸å®ĥ": 3813,
      "ç¯®åŃĲ": 3814,
      "åĴĨåĵ®": 3815,
      "çĨ": 3816,
      "çļĦçĲĥ": 3817,
      "å¥¹è¿ĺ": 3818,
      "çľ¨": 3819,
      "åį«": 3820,
      "æıĲéĨĴ": 3821,
      "æ¯Ľå·¾": 3822,
      "è£ħæ»¡äºĨ": 3823,
      "ç»ıå¸¸": 3824,
      "æ©¡çļ®": 3825,
      "ä»ĸä¸įçŁ¥éģĵ": 3826,
      "å¥¹æĭ¿èµ·": 3827,
      "å¾Īåħ´å¥ĭ": 3828,
      "æĪĳä¸įæĥ³": 3829,
      "ç¾İå¥½": 3830,
      "çļĦèľ": 3831,
      "æ¯ıå¤©ä¸Ģèµ·çİ©èĢį": 3832,
      "æ¢¨": 3833,
      "æ¸©æŁĶ": 3834,
      "çŃīå¾ħçĿĢ": 3835,
      "éĢģç»Ļ": 3836,
      "äºĨè®¸å¤ļ": 3837,
      "åĪº": 3838,
      "åĪĿ": 3839,
      "ä»ĸä»¬çļĦå¦Īå¦Ī": 3840,
      "ä»ĸä»¬éĿŀå¸¸å¼Ģå¿ĥ": 3841,
      "çİ©å®Į": 3842,
      "æĿ¥çľĭ": 3843,
      "åĨ»": 3844,
      "çĪĨ": 3845,
      "å¯Ħ": 3846,
      "è¡¥": 3847,
      "çľĭåĪ°äºĨå¾Īå¤ļ": 3848,
      "èľ¡": 3849,
      "æ±½è½¦åĴĮ": 3850,
      "æĪĳåı¯ä»¥å¸®ä½ł": 3851,
      "æ±ĤåĬ©": 3852,
      "æ±¤å§ĨåĴĮèĭı": 3853,
      "å®ĮæĪĲåĲİ": 3854,
      "åħ½åĮ»": 3855,
      "è·³æĿ¥è·³åİ»": 3856,
      "èİīèİīæĢ»æĺ¯": 3857,
      "è¿Ļä»¶": 3858,
      "éĿŀå¸¸çĶŁæ°Ķ": 3859,
      "èĥ½æī¾åĪ°": 3860,
      "çĽĹ": 3861,
      "ä¸Ģèµ·çİ©äºĨ": 3862,
      "é²¨": 3863,
      "æĭĽåĳ¼": 3864,
      "æĪĳè§īå¾Ĺ": 3865,
      "å®ĥåľ¨": 3866,
      "å¤§çĮ«": 3867,
      "ä½łè¿ĺ": 3868,
      "æĬ¢": 3869,
      "åºķ": 3870,
      "æ¸¸è¡Į": 3871,
      "æ¯Ľåıĳ": 3872,
      "è¿Ļæĺ¯ä¸ª": 3873,
      "æĦŁè§īå¾Ī": 3874,
      "çķª": 3875,
      "ç»ĵæĿŁæĹ¶": 3876,
      "æĤ¨": 3877,
      "åĩłå¤©": 3878,
      "é²¨é±¼": 3879,
      "ä»ĸæľĢåĸľæ¬¢çļĦ": 3880,
      "åŃĺ": 3881,
      "ä»ĸä»¬æ¯ıå¤©éĥ½": 3882,
      "å¥¹çļĦæīĭ": 3883,
      "é«ĺå¤§çļĦ": 3884,
      "æľīä¸Ģä¸ªåı«": 3885,
      "èĩŃ": 3886,
      "åħ¬äº¤": 3887,
      "çļĦèħ": 3888,
      "æ¢³": 3889,
      "éĩįæĸ°": 3890,
      "çļĦå°ıçĮ«": 3891,
      "åıĺå¾ĹæĽ´åĬł": 3892,
      "èİīèİīçļĦå¦Īå¦ĪåĳĬè¯īå¥¹": 3893,
      "å¤ªéĺ³èĲ½å±±": 3894,
      "èİīèİīéĹ®éģĵ": 3895,
      "å°ıä¸ĳ": 3896,
      "å®ĥè¯´": 3897,
      "åĬ²": 3898,
      "ç±»": 3899,
      "è¦ģæ±Ĥ": 3900,
      "åĽŀåºĶ": 3901,
      "é£ŀå¾Ĺ": 3902,
      "æĥħåĨµ": 3903,
      "æ¼«": 3904,
      "æ³¢çī¹": 3905,
      "èĪªè¡Į": 3906,
      "«çĳ": 3907,
      "å¥¹ä¸įæĥ³": 3908,
      "å¾ĭ": 3909,
      "çİ«çĳ": 3910,
      "æ±ª": 3911,
      "ç¬Ĩ": 3912,
      "èĴĤç±³å¾Īé«ĺåħ´": 3913,
      "çŁ¥è¯Ĩ": 3914,
      "ä¸ŃçļĦ": 3915,
      "è¢«åį¡": 3916,
      "å¼Ħä¸¢äºĨ": 3917,
      "ä¹Įé¸¦": 3918,
      "ç¯±ç¬Ĩ": 3919,
      "Whiskers": 3920,
      "çİ«çĳ°": 3921,
      "ä¸įåģľ": 3922,
      "éĩĮçİ©": 3923,
      "åİļ": 3924,
      "æĥ³çľĭçľĭ": 3925,
      "æľīä¸ĢäºĽ": 3926,
      "åģļä¸Ģä¸ª": 3927,
      "åĢ¼": 3928,
      "ä»Ģä¹Īæĺ¯": 3929,
      "çļĦèĤ": 3930,
      "çļĦå°ıåħĶåŃĲ": 3931,
      "çľŁæĺ¯": 3932,
      "èİīèİīçļĦå¦Īå¦Īç»Ļå¥¹": 3933,
      "èµ°åĪ°å¤ĸéĿ¢": 3934,
      "å¤±åİ»äºĨ": 3935,
      "æĴķ": 3936,
      "æĬ¬èµ·": 3937,
      "åħ¬äº¤è½¦": 3938,
      "çļĦåŃ©åŃĲ": 3939,
      "åĪ·": 3940,
      "èİīèİīæĦŁåĪ°": 3941,
      "èİīèİīæĺİçĻ½äºĨ": 3942,
      "æĪĳåıªæĺ¯": 3943,
      "è¿ĺåľ¨": 3944,
      "æµĩ": 3945,
      "å°ıé¸Łè¯´": 3946,
      "åĽ¾ä¹¦": 3947,
      "éķ¿æ¤ħ": 3948,
      "MaxåĴĮ": 3949,
      "æĹ¥è®°": 3950,
      "å¼ºå¤§": 3951,
      "èĦıäºĨ": 3952,
      "çĬ¯": 3953,
      "è¹Ī": 3954,
      "æłĩå¿Ĺ": 3955,
      "¯èļ": 3956,
      "çļĤ": 3957,
      "å¥¹çľĭåĪ°ä¸Ģä¸ª": 3958,
      "åĴĮçİ©åħ·": 3959,
      "èİīèİīåĨ³å®ļ": 3960,
      "æĶĢ": 3961,
      "éĻĭ": 3962,
      "éĽı": 3963,
      "éķ¿çĿĢ": 3964,
      "æ»ĳä¸ĭæĿ¥": 3965,
      "èİīèİīçļĦå¦Īå¦Īè®©å¥¹": 3966,
      "åģľä¸ĭ": 3967,
      "èĪŀè¹Ī": 3968,
      "åłĤ": 3969,
      "çĩ¥": 3970,
      "æĴŀåĪ°äºĨ": 3971,
      "å¸Ĥåľº": 3972,
      "¯èļĵ": 3973,
      "æĺ¾": 3974,
      "ä»ĸä»¬å¿ħé¡»": 3975,
      "æĢ¥": 3976,
      "æ³¼": 3977,
      "å¸®åĬ©ä½ł": 3978,
      "å°±åľ¨": 3979,
      "èĢģå¤ªå¤ª": 3980,
      "å¥¶æ²¹": 3981,
      "æµ·çĽĹ": 3982,
      "åħ¶ä»ĸåŃ©åŃĲ": 3983,
      "å¼Ħå¾Ĺ": 3984,
      "ä¹Łæĥ³çİ©": 3985,
      "åĸ·æ³ī": 3986,
      "ä½łæĥ³åĴĮæĪĳä¸Ģèµ·çİ©åĲĹ": 3987,
      "æ£ķèī²": 3988,
      "ä»ħ": 3989,
      "åĲ¬åĪ°äºĨä¸Ģä¸ª": 3990,
      "æĽ¾": 3991,
      "ç»ĵæŀľ": 3992,
      "è¿Ļæĺ¯ä»Ģä¹Ī": 3993,
      "ç¥Īç¥": 3994,
      "æµ·éĩĮ": 3995,
      "æľīä¸Ģä¸ªå°ıçĶ·åŃ©åı«æıĲç±³": 3996,
      "æ¢¯åŃĲ": 3997,
      "çĸļ": 3998,
      "éĽ·ç±³": 3999,
      "ç¥Īç¥·": 4000,
      "ky": 4001,
      "ä¸Ģæķ´å¤©éĥ½åľ¨": 4002,
      "ä»¥ä¸º": 4003,
      "ä¸ºäºĨ": 4004,
      "æĢľ": 4005,
      "çĲĥçİ©": 4006,
      "èĩªå·±èĥ½": 4007,
      "å¥¹åĸľæ¬¢åĲĥ": 4008,
      "æľīè¶£çļĦä¸ľè¥¿": 4009,
      "éĽ¨æ°´": 4010,
      "æ¯įäº²": 4011,
      "æ»ĳæ¢¯ä¸Ĭ": 4012,
      "ä¸Ģæ£µæłĳ": 4013,
      "éŀĭ": 4014,
      "ä¸Ģä¸ªå°ıå¥³åŃ©åı«": 4015,
      "éĨĴæĿ¥æĹ¶": 4016,
      "ä½ıåľ¨ä¸Ģä¸ªå°ıæĪ¿åŃĲéĩĮ": 4017,
      "ä»ĸåĲ¬åĪ°": 4018,
      "å¿ł": 4019,
      "åĨł": 4020,
      "è¿Ļä¸ªäºº": 4021,
      "åĲ¬è¯Ŀ": 4022,
      "è·³èļ": 4023,
      "æĻķ": 4024,
      "éĴ»": 4025,
      "æŃ£å¸¸": 4026,
      "ä¸įçŁ¥éģĵå¦Ĥä½ķ": 4027,
      "è¿ľå¤Ħ": 4028,
      "çĻ½èī²": 4029,
      "çļĦå¤§æłĳ": 4030,
      "ç»ıè¿ĩ": 4031,
      "ç«Ļåľ¨": 4032,
      "çĥĺçĦ": 4033,
      "è·³èļ¤": 4034,
      "ä»ĺ": 4035,
      "æĪĳæľī": 4036,
      "æĪĳçĪ±ä½ł": 4037,
      "ç»Ŀ": 4038,
      "åı¯æĢľ": 4039,
      "è°¦": 4040,
      "çĶŁéķ¿": 4041,
      "çŃĴ": 4042,
      "åĳĬè¯īä»ĸä»¬": 4043,
      "å¹²çĩ¥": 4044,
      "æ£ĴäºĨ": 4045,
      "éĺ³åħīä¸ĭåľ¨å¤ĸéĿ¢çİ©èĢį": 4046,
      "çļĦæ°´": 4047,
      "çļĦåĬ¨çī©": 4048,
      "åıīåŃĲ": 4049,
      "åħ®": 4050,
      "ä»ĸä»¬éĿŀå¸¸é«ĺåħ´": 4051,
      "æĹĹ": 4052,
      "éĿŀå¸¸å¤§": 4053,
      "å£¶": 4054,
      "æĸ¯æ³¢çī¹": 4055,
      "æĬ±ä½ıäºĨ": 4056,
      "åĽŀå®¶æĹ¶": 4057,
      "æ¼Ĥäº®çļĦè£ĻåŃĲ": 4058,
      "é£İéĽ¨": 4059,
      "ç»ĵæĿŁåĲİ": 4060,
      "æľīä¸ªä¸»æĦı": 4061,
      "åĽŀåĪ°å®¶æĹ¶": 4062,
      "åĨħçĸļ": 4063,
      "åĴ¯åĴ¯": 4064,
      "æµ·è±ļ": 4065,
      "èĢ³æľµ": 4066,
      "èĦĨå¼±": 4067,
      "¿çĥĤ": 4068,
      "ä¸´": 4069,
      "çļĦè¿ĩç¨ĭä¸Ń": 4070,
      "ä»ĸçľĭåĪ°ä¸Ģåıª": 4071,
      "å¥¹ç»Ļ": 4072,
      "åħ°": 4073,
      "åľ¨çİ©èĢįæĹ¶": 4074,
      "ä»ĸä»¬åİ»": 4075,
      "ä½łä¸įèĥ½": 4076,
      "ä½łåºĶè¯¥": 4077,
      "åģļä¸ĢäºĽ": 4078,
      "èĬ±çĵ¶": 4079,
      "çģ¿çĥĤ": 4080,
      "è¡Įä¸º": 4081,
      "èģļ": 4082,
      "è®©æĪĳä»¬ä¸Ģèµ·": 4083,
      "æİ¨è½¦": 4084,
      "ç¾İä¸½çļĦèĬ±æľµ": 4085,
      "å±ĭåŃĲéĩĮ": 4086,
      "æľīä¸Ģä¸ªåĲįåı«æıĲç±³çļĦçĶ·åŃ©": 4087,
      "åľ¨ä¸Ģä¸ªå°ıæĪ¿åŃĲéĩĮ": 4088,
      "å¾ĹéĿŀå¸¸å¿«": 4089,
      "ggy": 4090,
      "ä½Ĩå·²ç»ıå¤ªæĻļäºĨ": 4091,
      "çİī": 4092,
      "ä»ĸä»¬åıĪ": 4093,
      "ä»ĸä»¬è¿ĺ": 4094,
      "èİīèİīç¬ĳäºĨ": 4095,
      "èµ·åĪĿ": 4096,
      "æĬĬå¥¹çļĦ": 4097,
      "åįİ": 4098,
      "å¿«åľ°": 4099,
      "çĮ«è¯´": 4100,
      "æĻ¶": 4101,
      "éĤ£ä¸ªçİ©åħ·": 4102,
      "è£¹": 4103,
      "èī¾ç±³ä¸½": 4104,
      "æľīä¸ĢåıªåĲįåı«æĸĳçĤ¹": 4105,
      "çĸ¯": 4106,
      "é¦ĸåħĪ": 4107,
      "æģ¶å¿ĥ": 4108,
      "è°Īè®º": 4109,
      "èĥ¶æ°´": 4110,
      "çİīç±³": 4111,
      "å¥¹è·ĳ": 4112,
      "å°Ħ": 4113,
      "è¿Ļå°±æĺ¯": 4114,
      "åįĬ": 4115,
      "éķ¿å¤§": 4116,
      "èĢģèĻİ": 4117,
      "çĲĨè§£": 4118,
      "åıĳçİ°äºĨä¸ĢåĿĹ": 4119,
      "ç¨į": 4120,
      "äº²åĲ»": 4121,
      "å¾®ç¬ĳçĿĢåĽŀçŃĶ": 4122,
      "èŀº": 4123,
      "åİīå®³": 4124,
      "ĭåĪ©": 4125,
      "å¥¹æĭ¥æĬ±äºĨ": 4126,
      "å¤©é¹ħ": 4127,
      "æĪĳéľĢè¦ģ": 4128,
      "å®ĥæĥ³": 4129,
      "éĿŀå¸¸æĦŁæ¿Ģ": 4130,
      "åİ»æĭ¿": 4131,
      "æ²ĻåŃĲ": 4132,
      "çĲĥä¸Ģèµ·çİ©": 4133,
      "å£ģ": 4134,
      "çĶ¨è¿Ļä¸ª": 4135,
      "å¤ªæ£ĴäºĨ": 4136,
      "ç¾İå¦": 4137,
      "è¿Ľåħ¥": 4138,
      "é¡¿": 4139,
      "çļĦèĵĿ": 4140,
      "æľīä¸Ģåıªå°ıåħĶåŃĲ": 4141,
      "éĶĭåĪ©": 4142,
      "ä»»åĬ¡": 4143,
      "æĳĶåĢĴ": 4144,
      "ä¹Łå¾Īå¼Ģå¿ĥ": 4145,
      "Timmy": 4146,
      "è§ĴèĲ½": 4147,
      "«åŃĲ": 4148,
      "Ġå¥¹çļĦå¦Īå¦Ī": 4149,
      "åħ»": 4150,
      "å¾Īä¹ħ": 4151,
      "åİĮ": 4152,
      "æłı": 4153,
      "æ¯Ĵ": 4154,
      "å½ĵå¥¹åľ¨": 4155,
      "æĽ´å¥½çļĦ": 4156,
      "è´£": 4157,
      "é²¸": 4158,
      "ç½®": 4159,
      "çº¸æĿ¡": 4160,
      "è¿Ļæł·åģļ": 4161,
      "æĦıæĥ³ä¸įåĪ°çļĦäºĭæĥħåıĳçĶŁäºĨ": 4162,
      "å²¸": 4163,
      "ä¸ºèĩªå·±æĦŁåĪ°éªĦåĤ²": 4164,
      "éĹ»èµ·æĿ¥": 4165,
      "åĨľåľºéĩĮ": 4166,
      "æ©¡åŃĲ": 4167,
      "èººåľ¨": 4168,
      "æ¬¢ä¹ĲæĹ¶åħī": 4169,
      "éº»çĥ¦": 4170,
      "Ġå¦Īå¦Ī": 4171,
      "è¯ģ": 4172,
      "æĪĳçİ°åľ¨": 4173,
      "åĸľæ¬¢çİ©": 4174,
      "åı«çĿĢ": 4175,
      "çİ©åħ·æ±½è½¦": 4176,
      "çĶ¨åĬĽ": 4177,
      "å¤ªå¥½": 4178,
      "éĢĬ": 4179,
      "çļĦè¢": 4180,
      "çģŃ": 4181,
      "é¢Ī": 4182,
      "åĪĨäº«åĴĮ": 4183,
      "éº¦çīĩ": 4184,
      "ä»ĸä»¬åľ¨ä¸Ģèµ·": 4185,
      "ä¹¦æŀ¶": 4186,
      "åŁĭ": 4187,
      "èıĬ": 4188,
      "æ³¨æĦıåĪ°äºĨ": 4189,
      "åĿļæĮģ": 4190,
      "èµ¢å¾Ĺæ¯ĶèµĽ": 4191,
      "æļ´é£İéĽ¨": 4192,
      "éĽıèıĬ": 4193,
      "é²¸é±¼": 4194,
      "çļĦéĩįè¦ģ": 4195,
      "ä»ĸæĦŁåĪ°": 4196,
      "å¥¹å¾Ī": 4197,
      "ä»ĸä»¬è·ĳ": 4198,
      "è¿Ļç§į": 4199,
      "åľ°åĽ¾": 4200,
      "æĪĳä»¬æĿ¥": 4201,
      "ä¹Łèĥ½": 4202,
      "æĺİäº®": 4203,
      "æĭ¿åĩºæĿ¥": 4204,
      "èĮĦ": 4205,
      "ä»įçĦ¶åı¯ä»¥": 4206,
      "æ²ĻåŃĲéĩĮ": 4207,
      "é¢ľæĸĻ": 4208,
      "ä¾Ŀ": 4209,
      "åĲīä»ĸ": 4210,
      "è®¤è¯Ĩ": 4211,
      "ä¸ĭéĽ¨äºĨ": 4212,
      "ä¸īå²ģ": 4213,
      "çķªèĮĦ": 4214,
      "çĥĺçĦĻ": 4215,
      "å®«": 4216,
      "å¾Īåį±éĻ©": 4217,
      "ä½łä¸į": 4218,
      "åºĦ": 4219,
      "çľĭåĪ°ä¸Ģä¸ªå¤§": 4220,
      "èµ°å¼Ģ": 4221,
      "å¯¹ä»ĸ": 4222,
      "å®īæħ°": 4223,
      "åĲĳä»ĸ": 4224,
      "éĴīåŃĲ": 4225,
      "è£ħé¥°": 4226,
      "ä¿¡å°ģ": 4227,
      "æķĳåĳ½": 4228,
      "æ¯Ľæ¯ĽèĻ«": 4229,
      "ä¸ĳéĻĭ": 4230,
      "æĮ¥æīĭåĳĬåĪ«": 4231,
      "æĲŃå»º": 4232,
      "æĶ¹åıĺ": 4233,
      "èĤ¥çļĤ": 4234,
      "çļĦæ¸¸æĪı": 4235,
      "çļĦé£Łçī©": 4236,
      "å¥¹è·ĳåĪ°": 4237,
      "å°Ĭ": 4238,
      "ä»ĸä»¬æĪĲä¸ºäºĨæľĢå¥½çļĦæľĭåıĭ": 4239,
      "å®ĥåıĪ": 4240,
      "ä¼Ļ": 4241,
      "è½®åŃĲ": 4242,
      "æĬĬè¿Ļä¸ª": 4243,
      "åģļäºĨä¸Ģ": 4244,
      "éĻį": 4245,
      "æıĲä¾Ľ": 4246,
      "åĲ¬èµ·æĿ¥": 4247,
      "èĩªå·±çļĦæĪ¿éĹ´": 4248,
      "çľĭèµ·æĿ¥éĿŀå¸¸": 4249,
      "çħ®": 4250,
      "æĿ¾é¥¼": 4251,
      "èļ¯èļĵ": 4252,
      "èİ·": 4253,
      "åķĨåºĹéĩĮ": 4254,
      "éĴ±åĮħ": 4255,
      "è¿Ļè¾Ĩè½¦": 4256,
      "æĺ¯æľĢå¥½çļĦæľĭåıĭ": 4257,
      "æīİ": 4258,
      "æĸĹ": 4259,
      "èĴĤç±³éĿŀå¸¸é«ĺåħ´": 4260,
      "çľĭåĪ°äºĨä¸ĢäºĽ": 4261,
      "å¸®åĬ©ä»ĸä»¬": 4262,
      "ç§ĥ": 4263,
      "éķ¿é¢Ī": 4264,
      "é©¬åħĭæĸ¯è¯´": 4265,
      "åĿĲä¸ĭ": 4266,
      "å®īåħ¨çļĦåľ°æĸ¹": 4267,
      "æ´ŀç©´": 4268,
      "æŀ¶åŃĲä¸Ĭ": 4269,
      "åĽ¢ç³Ł": 4270,
      "åįĪé¥Ń": 4271,
      "ä¸ĢåĪĩéĥ½": 4272,
      "åįķè¯į": 4273,
      "äºĨä¸Ģåı£æ°Ķ": 4274,
      "æĳĩäºĨæĳĩå°¾å·´": 4275,
      "æĿĳåºĦ": 4276,
      "ä¹ĲäºİåĬ©äºº": 4277,
      "åĽ¾ä¹¦é¦Ĩ": 4278,
      "å¥¹æľīä¸Ģåıª": 4279,
      "ä»ĸä»¬ä¸Ģèµ·çİ©èĢį": 4280,
      "ä¸Ģä¸ªæĸ°çļĦ": 4281,
      "å®ĥæľī": 4282,
      "èµ°åķĬ": 4283,
      "é£ŀèµ°": 4284,
      "æĭ¿åĪ°": 4285,
      "ä¸½èİİ": 4286,
      "èĥľ": 4287,
      "å±±é¡¶": 4288,
      "åį¡çīĩ": 4289,
      "ç¢İäºĨ": 4290,
      "åĸ·åļ": 4291,
      "è¹¦è·³": 4292,
      "ç´«èī²": 4293,
      "è°ĥçļ®": 4294,
      "èµ°åķĬèµ°": 4295,
      "åĸ·åļı": 4296,
      "§éģĵ": 4297,
      "çļĦè¡¨æĥħ": 4298,
      "å¥¹åİ»": 4299,
      "ä»ĸä»¬åľ¨åħ¬åĽŃéĩĮ": 4300,
      "èĴĤå§Ĩåľ¨": 4301,
      "éļ§éģĵ": 4302,
      "è¿ĺèĥ½": 4303,
      "å¤ĸéĿ¢çİ©": 4304,
      "éĴ¢": 4305,
      "èįīåľ°": 4306,
      "æĦŁè§īå¥½ä¸ĢçĤ¹": 4307,
      "åĩĨå¤ĩå¥½äºĨ": 4308,
      "æ¹¿äºĨ": 4309,
      "å·¢éĩĮ": 4310,
      "é¸¡èĽĭ": 4311,
      "éĢĥè·ĳ": 4312,
      "æ··ä¹±": 4313,
      "æľŁå¾ħ": 4314,
      "å¥¥åĪ©": 4315,
      "å¼ĹéĽ·å¾·": 4316,
      "é¡½çļ®": 4317,
      "æľ¯": 4318,
      "è¯¢": 4319,
      "å°ĳ": 4320,
      "ä»ĸä»¬ä¸įçŁ¥éģĵ": 4321,
      "èİīèİīå¾Ī": 4322,
      "çļĦå¦Īå¦Īè¯´": 4323,
      "æĲŀ": 4324,
      "æĪĲäºĨå¥½æľĭåıĭ": 4325,
      "å¼ºå¤§çļĦ": 4326,
      "é¡¶éĥ¨": 4327,
      "æİ¨çī¹": 4328,
      "æ²Ļåł¡": 4329,
      "ä»»ä½ķäºº": 4330,
      "æŀĿæĿ¡": 4331,
      "ä½Ĩæ²¡æľīæī¾åĪ°": 4332,
      "çĸ¯çĭĤ": 4333,
      "çļĦå¥½": 4334,
      "ä»ĸçľĭåĪ°ä¸Ģä¸ª": 4335,
      "å¥¹æĥ³è¦ģ": 4336,
      "å¾ĹåĪ°äºĨ": 4337,
      "çīµ": 4338,
      "å¼Ģå§ĭçİ©": 4339,
      "åģļæľĭåıĭ": 4340,
      "å¯¹çļĦ": 4341,
      "æ²¡æľīæĶ¾å¼ĥ": 4342,
      "éĺ»": 4343,
      "ä¸Ģå¤©æĻļä¸Ĭ": 4344,
      "åĽ¾æ¡Ī": 4345,
      "åĬĽéĩı": 4346,
      "æ³¢æ¯Ķ": 4347,
      "å¤±æľĽ": 4348,
      "æľīçĤ¹å®³æĢķ": 4349,
      "çĶľç¾İ": 4350,
      "èĪĴéĢĤçļĦ": 4351,
      "å¿łè¯ļ": 4352,
      "ä»ĸè·ĳåĪ°": 4353,
      "å¥½çİ©": 4354,
      "ä»¥åħį": 4355,
      "ä»ĸçļĦçĪ¸çĪ¸": 4356,
      "çľĭåĪ°ä»ĸ": 4357,
      "åįģ": 4358,
      "è®©å®ĥä»¬": 4359,
      "èº«ä½ĵ": 4360,
      "ä¼¸åĩº": 4361,
      "éķľåŃĲ": 4362,
      "èĦ¸ä¸Ĭå¸¦çĿĢ": 4363,
      ",\"": 4364,
      "Bob": 4365,
      "ģè®¸": 4366,
      "åħģè®¸": 4367,
      "ä»ĸä»¬è½®æµģ": 4368,
      "æĺ¯éĿŀå¸¸": 4369,
      "èİīèİīå¾Īéļ¾è¿ĩ": 4370,
      "å°ıé¸ŃåŃĲ": 4371,
      "æī§": 4372,
      "åī©": 4373,
      "èĢ¸": 4374,
      "å¾Ĺå¯¹": 4375,
      "åĬ¨äºĨ": 4376,
      "åıĺæĪĲäºĨ": 4377,
      "å°ıå¿ĥçĤ¹": 4378,
      "ç¥¨": 4379,
      "çº¸ä¸Ĭ": 4380,
      "æį¡èµ·äºĨ": 4381,
      "çĭ¬çī¹": 4382,
      "æ©ĻåŃĲ": 4383,
      "åŃ¦åĪ°äºĨæķĻè®Ń": 4384,
      "åĪ°å¤Ħæī¾": 4385,
      "éĢļè¿ĩ": 4386,
      "å¥¹åĸľæ¬¢åĴĮå¥¹çļĦçİ©åħ·ä¸Ģèµ·çİ©": 4387,
      "å°Ĭéĩį": 4388,
      "éķ¿é¢Īé¹¿": 4389,
      "çĴ": 4390,
      "Ġèİīèİīè¯´": 4391,
      "ĹåĲį": 4392,
      "çļĦç¬ĳå®¹": 4393,
      "äºĨå¥¹": 4394,
      "åħµ": 4395,
      "ç¬ĳè¯Ŀ": 4396,
      "æĶ¾ä¸ĭ": 4397,
      "åŃ¦åĪ°": 4398,
      "ä½ľåĵģ": 4399,
      "èĩªå·±çļĦæĪ¿éĹ´éĩĮ": 4400,
      "å±±ç¾Ĭ": 4401,
      "å·¨äºº": 4402,
      "å·´è¿ª": 4403,
      "æ±¤å§ĨåĴĮèĲ¨å§Ĩ": 4404,
      "çıĬ": 4405,
      "ç²īèī²": 4406,
      "åºĬä¸ĭ": 4407,
      "æĮīçħ§": 4408,
      "åĪ°å¤Ħå¯»æī¾": 4409,
      "èŃ¦åĳĬ": 4410,
      "å§Ĳå§Ĳ": 4411,
      "çĩĥ": 4412,
      "ä¸įæķ¢çĽ¸ä¿¡": 4413,
      "çļĦèħ¿": 4414,
      "åĪĹ": 4415,
      "å¥¹åŃ¦ä¼ļäºĨ": 4416,
      "åľ¨éĺ³åħīä¸ĭ": 4417,
      "åľ¨åľ°æĿ¿ä¸Ĭ": 4418,
      "æĪĳä¸įåĸľæ¬¢": 4419,
      "ä¸įæĸŃ": 4420,
      "å¤§æłĳä¸Ĭ": 4421,
      "ä¼¼": 4422,
      "éĤ£ä¸įæĺ¯": 4423,
      "ä½Ĩè¿Ļ": 4424,
      "æĭ¯": 4425,
      "æĦıåĳ³": 4426,
      "åĽłä¸ºä»ĸä»¬": 4427,
      "åĨ³å®ļåİ»": 4428,
      "æ´»æ³¼": 4429,
      "èĲ¨æĭīåĴĮæľ¬": 4430,
      "èŀį": 4431,
      "æ²³è¾¹": 4432,
      "ä»ĸéĹ®å¦Īå¦Ī": 4433,
      "ä¸¾è¡Į": 4434,
      "éģįäºĨ": 4435,
      "æ©Ļèī²": 4436,
      "è¯¢éĹ®": 4437,
      "ä»ĭ": 4438,
      "ä»ĸèµ°åĪ°": 4439,
      "åľ¨éĻ¢åŃĲéĩĮ": 4440,
      "åĴĮå¤§": 4441,
      "æĪĳå¾Īé«ĺåħ´": 4442,
      "å¿§": 4443,
      "å®ĥå¤ª": 4444,
      "äºĨä¸Ģåľº": 4445,
      "çĤī": 4446,
      "èĬ±çĶŁ": 4447,
      "é£ŀåĪ°äºĨ": 4448,
      "çĥĽ": 4449,
      "æ¯Ľè¡£": 4450,
      "çº¢èī²çļĦçĲĥ": 4451,
      "åĲĵäºº": 4452,
      "æĪĸèĢħ": 4453,
      "å¥¹åĸľæ¬¢åĴĮå¥¹çļĦçİ©åħ·": 4454,
      "æĸŃäºĨ": 4455,
      "å´": 4456,
      "ä¸Ģæľ¬": 4457,
      "ä»ĸä»İ": 4458,
      "å¥¹ä¸º": 4459,
      "èİīèİīçĤ¹çĤ¹å¤´": 4460,
      "ä¼Ĭ": 4461,
      "éģ¿": 4462,
      "çĦ°": 4463,
      "æĺİäº®çļĦ": 4464,
      "é¢¤": 4465,
      "è£Ļ": 4466,
      "ç«¯": 4467,
      "æİ¥ä¸ĭæĿ¥": 4468,
      "éĥ¨åĪĨ": 4469,
      "æºª": 4470,
      "ç£¨": 4471,
      "å©ļ": 4472,
      "ä»·": 4473,
      "å¥¹çľĭçĿĢ": 4474,
      "æľīèĢĲå¿ĥ": 4475,
      "åľ¨è¿Ļä¸ª": 4476,
      "ä»ĸä»¬çľĭåĪ°ä¸Ģä¸ª": 4477,
      "çİ©åĲĹ": 4478,
      "éĤ£æł¹": 4479,
      "åĩ¯": 4480,
      "äºĨä¸Ģå£°": 4481,
      "å¸®åĬ©æĪĳ": 4482,
      "ä¼¤äºĨ": 4483,
      "èĲ¨èİī": 4484,
      "åıĳçİ°éĩĮéĿ¢": 4485,
      "å¥¹åĸľæ¬¢çĶ¨": 4486,
      "æľīä¸Ģåıªåı«åģļ": 4487,
      "æľºä¼ļ": 4488,
      "éĤ£åıªçĮ«": 4489,
      "çł´æįŁ": 4490,
      "æ£ĴçļĦ": 4491,
      "å±ĭé¡¶": 4492,
      "æ³¥å·´": 4493,
      "ĩåı": 4494,
      "åĲ¼": 4495,
      "èİīèİīéĿŀå¸¸ä¼¤å¿ĥ": 4496,
      "æĿ¥åĲ§": 4497,
      "åĸĩåı": 4498,
      "æĦ§": 4499,
      "éĤ£ä½į": 4500,
      "æĬĢ": 4501,
      "ä¹Łä¼ļ": 4502,
      "çĶ»ä½ľ": 4503,
      "èĻļ": 4504,
      "çģ«çĦ°": 4505,
      "å¾Īå¥½åĲĥ": 4506,
      "æ¥¼æ¢¯": 4507,
      "äºĶå½©æĸĳæĸĵçļĦ": 4508,
      "æĦıåĳ³çĿĢ": 4509,
      "åĸĩåıŃ": 4510,
      "±ä¹Ĳ": 4511,
      "»çĴ": 4512,
      "äºĨè¿Ļä¸ª": 4513,
      "å¥¹çľĭåĪ°ä¸Ģ": 4514,
      "æľīäºĨä¸Ģä¸ª": 4515,
      "çİ»çĴ": 4516,
      "æĪ³": 4517,
      "åīĳ": 4518,
      "å¥¹çļĦæĪ¿éĹ´": 4519,
      "æĪĳä»¬ä¸Ģèµ·çİ©åĲ§": 4520,
      "äºĨä¸Ģæ¬¡": 4521,
      "çľĭåĪ°å¥¹": 4522,
      "æ±¤å§Ĩåĸľæ¬¢": 4523,
      "èĩªå·±çļĦä¸ľè¥¿": 4524,
      "ä»ĸåľ¨åľ°ä¸Ĭ": 4525,
      "ä»»ä½ķä¸ľè¥¿": 4526,
      "ä½ĨéļıåĲİåıĳçĶŁäºĨä¸Ģä»¶æĦıæĥ³ä¸įåĪ°çļĦäºĭæĥħ": 4527,
      "éľĢè¦ģå¸®åĬ©æĹ¶": 4528,
      "çī¹æ®ĬçļĦ": 4529,
      "çĶ°éĩİéĩĮ": 4530,
      "æĳ©æīĺ": 4531,
      "çİ»çĴĥ": 4532,
      "è¯´éģĵ": 4533,
      "æĥ³æ³ķ": 4534,
      "åıªæľī": 4535,
      "ç¬ĳå£°": 4536,
      "çľĭåĪ°çļĦ": 4537,
      "è¥¿åħ°": 4538,
      "å¯¹å¥¹": 4539,
      "å¯¹äºİ": 4540,
      "éļĲ": 4541,
      "æīĵæĭĽåĳ¼": 4542,
      "åĲĳå¥¹": 4543,
      "åİ»äºĨåķĨåºĹ": 4544,
      "éĶ¤åŃĲ": 4545,
      "æľīå¾Īå¤ļæľĭåıĭ": 4546,
      "æĭįæīĵ": 4547,
      "åĴĮæľĭåıĭä»¬ä¸Ģèµ·çİ©": 4548,
      "æķ°åŃĹ": 4549,
      "å½±åŃĲ": 4550,
      "è®¾è®¡": 4551,
      "åĳ¨åĽ´çļĦä¸ĸçķĮ": 4552,
      "éģ¥è¿ľ": 4553,
      "æĳ©æīĺè½¦": 4554,
      "è¥¿åħ°èĬ±": 4555,
      "ddy": 4556,
      "¦é¹": 4557,
      "ä»ĸä»¬æĪĲä¸ºäºĨå¥½æľĭåıĭ": 4558,
      "å°ıçĨĬ": 4559,
      "æĬļ": 4560,
      "éĿŀå¸¸èģªæĺİ": 4561,
      "é£ŀæĿ¥": 4562,
      "æıĲç±³çļĦ": 4563,
      "æŁĲ": 4564,
      "ç»§ç»Ńçİ©èĢį": 4565,
      "é¹¦é¹": 4566,
      "çļĦå¤§çĭĹ": 4567,
      "åĽŀæĿ¥æĹ¶": 4568,
      "å¤±åİ»": 4569,
      "èįīèİĵ": 4570,
      "å¤«äºº": 4571,
      "åĸľæ¬¢åľ¨å¤ĸéĿ¢çİ©èĢį": 4572,
      "çļĦéĩįè¦ģæĢ§": 4573,
      "åī©ä¸ĭ": 4574,
      "é¹¦é¹ī": 4575,
      "Le": 4576,
      "ľåŃĲ": 4577,
      "åĴĮè®¸å¤ļ": 4578,
      "æĿĸ": 4579,
      "ä¼ĺ": 4580,
      "å¿ĥæĥħ": 4581,
      "é£ĺ": 4582,
      "çĮİ": 4583,
      "è·ĳåİ»æī¾": 4584,
      "éĽķ": 4585,
      "æŀľéħ±": 4586,
      "å¥¹åĸľæ¬¢åľ¨å¤ĸéĿ¢çİ©": 4587,
      "æĭīéĵ¾": 4588,
      "åĮħéĩĮ": 4589,
      "åĩĨå¤ĩå¥½": 4590,
      "æİīäºĨä¸ĭæĿ¥": 4591,
      "æ´¾å¯¹ä¸Ĭ": 4592,
      "ç¥ĸçĪ¶": 4593,
      "æīĵæī°": 4594,
      "åĸľæ¬¢åľ¨å¤ĸéĿ¢çİ©": 4595,
      "ç¬¼åŃĲ": 4596,
      "åıĶåıĶ": 4597,
      "èŀįåĮĸ": 4598,
      "çļĦåħĶåŃĲ": 4599,
      "ä»ĸæĭ¿èµ·": 4600,
      "å¥¹éĹ®éģĵ": 4601,
      "å§ĳ": 4602,
      "æĸ°ä¸ľè¥¿": 4603,
      "é£ŀè¿ĩ": 4604,
      "æĳ¸äºĨ": 4605,
      "ç®¡çĲĨ": 4606,
      "ç²īçº¢èī²çļĦ": 4607,
      "åĲīå§Ĩ": 4608,
      "èµ°è¿ĽæĪ¿éĹ´": 4609,
      "æľīä¸Ģä¸ªå¥³åŃ©åı«èİīèİī": 4610,
      "æĸĩä»¶": 4611,
      "¥èľ": 4612,
      "ä»ĸä»¬è¯ķåĽ¾": 4613,
      "åĴĮå¿«ä¹Ĳ": 4614,
      "å¤§åį¡è½¦": 4615,
      "ä½łçŁ¥éģĵ": 4616,
      "å¥¹çļĦæ³°è¿ªçĨĬ": 4617,
      "çĪ½": 4618,
      "ç¬Ľ": 4619,
      "çĮľ": 4620,
      "è·ĳè¿ĩæĿ¥": 4621,
      "è·ĳå¾Ĺå¾Īå¿«": 4622,
      "ä½Ĩæĺ¯å½ĵå¥¹": 4623,
      "å¥¹çļĦå¦Īå¦ĪåĴĮçĪ¸çĪ¸": 4624,
      "åĲĮæĹ¶": 4625,
      "å¼ĦåĿıäºĨ": 4626,
      "åĬªåĬĽå·¥ä½ľ": 4627,
      "éĹªéĹªåıĳåħīçļĦä¸ľè¥¿": 4628,
      "ç²¾çģµ": 4629,
      "è¡Ĺéģĵ": 4630,
      "èģªæĺİçļĦèĢģçĮ«å¤´é¹°": 4631,
      "¥èľ´": 4632,
      "ä¸Ģå¤§": 4633,
      "åĴĮé¸Ł": 4634,
      "çĿģ": 4635,
      "ä¹Łä¸į": 4636,
      "è¿Ļä¸ªä¸»æĦı": 4637,
      "çļĦèĻ": 4638,
      "çľĭçĿĢå¥¹": 4639,
      "ç»ĻäºĨä»ĸä»¬": 4640,
      "æľīå¾Īå¤ļçİ©åħ·": 4641,
      "å¤ªéĺ³å¼Ģå§ĭ": 4642,
      "æ¹¿æ¼ī": 4643,
      "çħ§é¡¾å¥½": 4644,
      "äºĳæľµ": 4645,
      "ä¸Ģéĺµå¤§é£İåĲ¹æĿ¥": 4646,
      "æ¹¿æ¼īæ¼ī": 4647,
      "ä¸Ģé¦ĸ": 4648,
      "ä»ĸèĥ½": 4649,
      "ä»ĸçľĭåĪ°ä¸Ģ": 4650,
      "ä»ĸä»¬è¿ĩä¸ĬäºĨå¹¸ç¦ıå¿«ä¹ĲçļĦçĶŁæ´»": 4651,
      "å°ıèĪ¹": 4652,
      "æīŃ": 4653,
      "æĿ¥çļĦ": 4654,
      "ä½Ĩå½ĵå¥¹": 4655,
      "éĿŀå¸¸å¥½å¥ĩ": 4656,
      "æĢĴ": 4657,
      "è¿ĩäºĨä¸Ģæ®µæĹ¶éĹ´": 4658,
      "å¹¶ä¸įæĺ¯": 4659,
      "æ°´åĴĮ": 4660,
      "éľ¸": 4661,
      "æīĢæľīçļĦçİ©åħ·": 4662,
      "èĵĿèİĵ": 4663,
      "è¸¢çĲĥ": 4664,
      "æķ²éĹ¨": 4665,
      "ç«łé±¼": 4666,
      "èµ¢å¾ĹäºĨæ¯ĶèµĽ": 4667,
      "æ§": 4668,
      "çļ±": 4669,
      "ä¸Ģçľĭ": 4670,
      "æľīäºĨä¸Ģä¸ªæĸ°æľĭåıĭ": 4671,
      "è¯¾": 4672,
      "å¼¯": 4673,
      "æĭĴ": 4674,
      "éģµ": 4675,
      "åĩ³": 4676,
      "è¡ĮæĿİ": 4677,
      "æīĵå¼ĢçĽĴåŃĲ": 4678,
      "é£İæļ´": 4679,
      "éĹ¨åı£": 4680,
      "åĭĩæķ¢çļĦ": 4681,
      "ç§ĭåįĥåĴĮ": 4682,
      "çļĦäººä»¬": 4683,
      "å¾Ĺå¤ªå¿«äºĨ": 4684,
      "ç¾ŀæĦ§": 4685,
      "çľŁæŃ£çļĦ": 4686,
      "çĺ": 4687,
      "ä¸ĢåĽ¢ç³Ł": 4688,
      "ä»ĸæľīä¸Ģ": 4689,
      "æĪĳå¸ĮæľĽ": 4690,
      "è½¦éĩĮ": 4691,
      "ä¸Ģåıªå¤§çĭĹ": 4692,
      "å¸®åĬ©å®ĥ": 4693,
      "åħ¬åĽŃæĹ¶": 4694,
      "å¥¹çļĦå¦Īå¦Īç»Ļå¥¹": 4695,
      "åıĺå¾Ĺå¾Ī": 4696,
      "ç©ºæ°Ķ": 4697,
      "çĶµæ±ł": 4698,
      "èĤļåŃĲ": 4699,
      "åıĳåĩºå¾Īå¤§çļĦ": 4700,
      "çģ¿çĥĤçļĦç¬ĳå®¹": 4701,
      "ä»ĸä»¬åĸľæ¬¢åľ¨": 4702,
      "åĴĮèĲ¨å§Ĩ": 4703,
      "å¾Īåĭĩæķ¢": 4704,
      "æĪĳåı«": 4705,
      "æĿ¥æĭľè®¿": 4706,
      "è¿ĻæľµèĬ±": 4707,
      "åıĪèĥ½": 4708,
      "ä½Ĩæĺ¯èİīèİī": 4709,
      "åĪĨéĴŁ": 4710,
      "æĸĳé©¬": 4711,
      "éħĴ": 4712,
      "éĽªåľ°": 4713,
      "ä¸įå°ıå¿ĥæĬĬ": 4714,
      "Leo": 4715,
      "è©": 4716,
      "ä»ĸä»¬èµ°åĪ°": 4717,
      "çİ©äºĨä¸Ģä¼ļåĦ¿": 4718,
      "åİĤ": 4719,
      "æĬ½": 4720,
      "æĭĸ": 4721,
      "èĴĤå§ĨåĴĮä»ĸçļĦå¦Īå¦Ī": 4722,
      "åħ¬å¹³": 4723,
      "çļĦèº": 4724,
      "å¥¹åĸľæ¬¢åľ¨å¤ĸéĿ¢çİ©èĢį": 4725,
      "ä»ĸä»¬éĥ½è¿ĩä¸ĬäºĨå¹¸ç¦ıå¿«ä¹ĲçļĦçĶŁæ´»": 4726,
      "ä¸įæĥ³è®©": 4727,
      "è¿ľç¦»": 4728,
      "æ³¢æµª": 4729,
      "èĹıåľ¨": 4730,
      "ä»ĸçļĦæľĭåıĭèĲ¨å§Ĩ": 4731,
      "çĭ¬ç«ĭ": 4732,
      "åĪ°å¤Ħéĥ½æĺ¯": 4733,
      "ä¸¾åĬŀ": 4734,
      "èĬĤçĽ®": 4735,
      "æı¡ä½ı": 4736,
      "ä¸įåľ¨ä¹İ": 4737,
      "æľīä¸Ģä¸ªåĲįåı«èĴĤå§ĨçļĦçĶ·åŃ©": 4738,
      "·é«": 4739,
      "çļĦæĸ°": 4740,
      "ä»ĸå°±": 4741,
      "å¥¹ä¸įçŁ¥éģĵ": 4742,
      "åĴĮä¸Ģåıª": 4743,
      "æ¯ģäºĨ": 4744,
      "æĪĳä»¬ä¸įèĥ½": 4745,
      "çŁ¿": 4746,
      "å¤´æĻķ": 4747,
      "å¼Ģå§ĭæĳĩæĻĥ": 4748,
      "åĲįåı«æľ¬å°¼": 4749,
      "æĳĬ": 4750,
      "ç§°": 4751,
      "è¿Ļåıªå°ıçĭĹ": 4752,
      "é¢ĳ": 4753,
      "éª·é«": 4754,
      "è°¢è°¢ä½łä»¬": 4755,
      "ä¸įæĥ³åĪĨäº«": 4756,
      "éĵ²": 4757,
      "å½ĵä»ĸä»¬çİ©çļĦæĹ¶åĢĻ": 4758,
      "ä¸įåĨįå®³æĢķäºĨ": 4759,
      "åĪ°äºĨä¸Ģä¸ªä¸»æĦı": 4760,
      "æ´ĭèĳ": 4761,
      "ç¼©": 4762,
      "é¾Ļå¤´": 4763,
      "åĪĽæĦı": 4764,
      "ç¢ĹéĩĮ": 4765,
      "åīªåĪĢ": 4766,
      "çĶ¨å®ĥæĿ¥": 4767,
      "åľ¨å¤©ç©ºä¸Ńé£ŀç¿Ķ": 4768,
      "è®¨åİĮ": 4769,
      "æ¶Īéĺ²åĳĺ": 4770,
      "éķ¿æ¤ħä¸Ĭ": 4771,
      "æĲŀç¬ĳ": 4772,
      "éª·é«ħ": 4773,
      "æ´ĭèĳ±": 4774,
      "oggy": 4775,
      "ä»ĸä¸įåĸľæ¬¢": 4776,
      "å¥¹å®¶": 4777,
      "åĴĮå°ıé¸Ł": 4778,
      "æĺ¯ä¸Ģ": 4779,
      "å¾ĪåĨ·": 4780,
      "éĿ´åŃĲ": 4781,
      "å¹ķ": 4782,
      "ä¼ļè®©": 4783,
      "äººéĥ½": 4784,
      "åį§": 4785,
      "åģļå¾Ĺå¥½": 4786,
      "é£ŀäºĨ": 4787,
      "å®ĥä»¬æĺ¯": 4788,
      "éĤ£æĺ¯æĪĳçļĦ": 4789,
      "èĹ¤": 4790,
      "åĨįä¹Łä¸įä¼ļ": 4791,
      "è¿½çĿĢ": 4792,
      "åģļäºĨä¸ª": 4793,
      "è´´çº¸": 4794,
      "çļĦèĥĮ": 4795,
      "æĳĩäºĨæĳĩå¤´": 4796,
      "åĩ¶çĮĽ": 4797,
      "ç®¡çĲĨåĳĺ": 4798,
      "è©¹": 4799,
      "¹èıľ": 4800,
      "ä»ĵ": 4801,
      "å°ıæ±½è½¦": 4802,
      "è½¦åŃĲ": 4803,
      "èµ°çļĦæĹ¶åĢĻ": 4804,
      "èĬ¹èıľ": 4805,
      "æľĢå¿«çļĦ": 4806,
      "ç³Ĭ": 4807,
      "éĴĵ": 4808,
      "æĪĳä»¬åı¯ä»¥ä¸Ģèµ·": 4809,
      "æħ¨": 4810,
      "éħį": 4811,
      "èĪ¹ä¸Ĭ": 4812,
      "è¢ĭåŃĲéĩĮ": 4813,
      "è§Ĩé¢ĳ": 4814,
      "æĿİèİī": 4815,
      "çļĦèº«": 4816,
      "åį§å®¤": 4817,
      "·æħ¨": 4818,
      "çİ©ä¸Ģä¸ª": 4819,
      "åĴĮé¸ŁåĦ¿": 4820,
      "èİīèİīçľĭçĿĢ": 4821,
      "å¤©ä½¿": 4822,
      "å®ĥåĸľæ¬¢": 4823,
      "ç»Ħ": 4824,
      "ä½Ĩä»ĸæĥ³": 4825,
      "èĴĤå§ĨåĴĮä»ĸçļĦæľĭåıĭä»¬": 4826,
      "äºĨä¸ĢæĿ¡": 4827,
      "ä½Ĩæĺ¯å½ĵ": 4828,
      "èĩªå·±çļĦå®¶": 4829,
      "åıĹæ¬¢è¿İ": 4830,
      "åħ¶ä»ĸçļĦ": 4831,
      "çĻ½èī²çļĦ": 4832,
      "æħ·æħ¨": 4833,
      "èĪŀåı°": 4834,
      "åĲĵåĪ°äºĨ": 4835,
      "ç¯·": 4836,
      "è½®èĥİ": 4837,
      "ä¿®å¥½å®ĥ": 4838,
      "è°·ä»ĵ": 4839,
      "æ§½": 4840,
      "çŀ": 4841,
      "Ġå¦Īå¦Īè¯´": 4842,
      "çļĦæĹ¥": 4843,
      "çļĦåĽ¾çīĩ": 4844,
      "å¥¹ä»İ": 4845,
      "ä»ĸä»¬çľĭåĪ°ä¸Ģåıª": 4846,
      "ä»ĸä»¬è·ĳåĪ°": 4847,
      "æĪĳæĿ¥": 4848,
      "èīĩ": 4849,
      "å¤ªå¤ļ": 4850,
      "æīĭæľº": 4851,
      "èľ¥èľ´": 4852,
      "éĵ¶": 4853,
      "è¿ĩæĿ¥äºĨ": 4854,
      "å¤ŁåĪ°": 4855,
      "æĪĲäºĨæľĢå¥½çļĦæľĭåıĭ": 4856,
      "çķĻåľ¨": 4857,
      "æ»ļåĬ¨": 4858,
      "æĪĲåĬŁäºĨ": 4859,
      "èĳĹåĲį": 4860,
      "çļĦèĦļ": 4861,
      "ä¸Ģä¸ªå°ıçĶ·åŃ©åĲįåı«èĴĤå§Ĩ": 4862,
      "ç£ģ": 4863,
      "æĭĴç»Ŀ": 4864,
      "ä»ĸä¸į": 4865,
      "ä»ĸéľĢè¦ģ": 4866,
      "å®ľ": 4867,
      "åľ¨ä¸ĬéĿ¢": 4868,
      "ä»ĸä»¬éĿŀå¸¸": 4869,
      "ä¸Ĭä¸ĭ": 4870,
      "ä»ĸçļĦä¸»äºº": 4871,
      "äºĨä¸Ģé¦ĸ": 4872,
      "èµ°åĲĳ": 4873,
      "èµ°è¿ĩåİ»": 4874,
      "çĽĶ": 4875,
      "èĢĮæĦŁåĪ°èĩªè±ª": 4876,
      "æīĵäºĨä¸ª": 4877,
      "æľīä¸Ģä¸ªå°ıå¥³åŃ©åı«Lily": 4878,
      "éķ¿åĩ³": 4879,
      "åıĳçĶŁäºĨä¸ĢäºĽ": 4880,
      "åıĳçİ°äºĨä¸Ģæł¹": 4881,
      "åĮħè£¹": 4882,
      "éļıæĹ¶": 4883,
      "åĲ¹åı£åĵ¨": 4884,
      "å£«åħµ": 4885,
      "ä»»ä½ķäºĭæĥħ": 4886,
      "è¯´è¯ĿäºĨ": 4887,
      "å½¼å¾Ĺ": 4888,
      "è¿½èµ¶": 4889,
      "æ²īéĩį": 4890,
      "è¿ĻåĿĹçŁ³å¤´": 4891,
      "ç»ķçĿĢ": 4892,
      "éľ¸éģĵ": 4893,
      "¤æĢĴ": 4894,
      "İçĥŃ": 4895,
      "çļĦçĽĴåŃĲ": 4896,
      "çļĦæł·åŃĲ": 4897,
      "å¥¹éĿŀå¸¸åħ´å¥ĭ": 4898,
      "åĴĮæ°´": 4899,
      "æĿĨ": 4900,
      "èİīèİīå¯¹": 4901,
      "æĦ¤æĢĴ": 4902,
      "æľīä¸Ģå¼ł": 4903,
      "å¥¹çļĦæĸ°": 4904,
      "éģĵè·¯": 4905,
      "èĴĤç±³çļĦæľĭåıĭ": 4906,
      "äºĨä¸Ģå¤§": 4907,
      "çĤİçĥŃ": 4908,
      "èĭį": 4909,
      "é£ŀåİ»": 4910,
      "èĻ¾": 4911,
      "éĹªçĶµ": 4912,
      "è¯¥åĽŀå®¶çļĦæĹ¶åĢĻ": 4913,
      "æī¾åĪ°äºĨä¸ĢäºĽ": 4914,
      "ä»ĸä»¬çļĦçİ©åħ·": 4915,
      "å¥¹ä»¬ä¸Ģèµ·": 4916,
      "å¥ĸåĵģ": 4917,
      "çļĦæĪ¿éĹ´": 4918,
      "ä¸Ģéģį": 4919,
      "å¥¹æĺ¯": 4920,
      "ä¸Ģä¸ªåı«": 4921,
      "ä¸Ģä¸ªå£°éŁ³": 4922,
      "å¦Īå¦Īç¬ĳçĿĢè¯´": 4923,
      "ä½łæĢİä¹Ī": 4924,
      "éĤ£æĬĬ": 4925,
      "ä½Ĩä»įçĦ¶": 4926,
      "æĭŃ": 4927,
      "ä¸Ģåıªå¤§": 4928,
      "ç«ŀ": 4929,
      "éĶĲ": 4930,
      "ä¸įåĨįæĦŁåĪ°": 4931,
      "èĤ¤": 4932,
      "æ¿ĢåĬ¨": 4933,
      "åĪ°è¾¾äºĨ": 4934,
      "æĵ¦æĭŃ": 4935,
      "å¥¹åĸľæ¬¢åľ¨å¥¹çļĦ": 4936,
      "æĹ©é¤Ĳ": 4937,
      "å¥ĩæĢªçļĦäºĭæĥħ": 4938,
      "å¹ħçĶ»": 4939,
      "åĽºæī§": 4940,
      "æīĭéĩĮæĭ¿çĿĢ": 4941,
      "çĽĽå¤§çļĦ": 4942,
      "æĶĢçĪ¬": 4943,
      "éĵ²åŃĲ": 4944,
      "çļĩ": 4945,
      "çļĦçĶ»": 4946,
      "çļĦå»ºè®®": 4947,
      "å¥¹èĥ½": 4948,
      "å¥¹å¿ħé¡»": 4949,
      "æĿ¥ä¸´": 4950,
      "éĤ£äºº": 4951,
      "ä¸Ĭæľī": 4952,
      "éĿŀå¸¸çī¹åĪ«": 4953,
      "æĬĬä»ĸ": 4954,
      "æĬĬå¥¹": 4955,
      "å½ĵä½ľ": 4956,
      "å¤´çĽĶ": 4957,
      "æ°´æ§½": 4958,
      "èĢĮæĦŁåĪ°éªĦåĤ²": 4959,
      "æ¯ıå¤©ä¸Ģèµ·çİ©": 4960,
      "æİīè¿ĽäºĨ": 4961,
      "åĵŃçĿĢ": 4962,
      "å°Ŀè¯ķä¸Ģä¸ĭ": 4963,
      "åıĳçĶŁäºĨæĦıæĥ³ä¸įåĪ°çļĦäºĭæĥħ": 4964,
      "å·¥åİĤ": 4965,
      "æĪĳåı¯ä»¥åĴĮä½ł": 4966,
      "èı²": 4967,
      "èĢĥèĻĳ": 4968,
      "æĮ¥èĪŀ": 4969,
      "æĺ¯ä»Ģä¹ĪæĦıæĢĿ": 4970,
      "éķĩä¸Ĭ": 4971,
      "çĮ©çĮ©": 4972,
      "æµĩæ°´": 4973,
      "Bl": 4974,
      "ff": 4975,
      "uff": 4976,
      "ľä¼": 4977,
      "ä¸Ģæľµ": 4978,
      "äºĨä»ĸçļĦ": 4979,
      "ä¸įäºĨ": 4980,
      "ä¸įå®īåħ¨": 4981,
      "èĴĤç±³åĴĮ": 4982,
      "æ±¤å§Ĩæĥ³": 4983,
      "åĨįçİ©": 4984,
      "çĪ¸çĪ¸ä¸Ģèµ·": 4985,
      "é¥±": 4986,
      "å¥¶çīĽ": 4987,
      "é¸ŁåĦ¿è¯´": 4988,
      "æīĵå¼Ģç®±åŃĲ": 4989,
      "å¥¹æĥ³èµ·äºĨ": 4990,
      "äº¤äºĨä¸Ģä¸ªæĸ°æľĭåıĭ": 4991,
      "å¥¹çļĦæľĭåıĭæ±¤å§Ĩ": 4992,
      "æľªçŁ¥": 4993,
      "åĩłä¸ª": 4994,
      "æĬ¬å¤´çľĭçĿĢ": 4995,
      "æµ·è±¹": 4996,
      "éļĲèĹı": 4997,
      "ĵ¬": 4998,
      "ä»ĸä»¬åĴĮ": 4999,
      "å®ĥçľĭèµ·æĿ¥å¾Ī": 5000,
      "è¿Ļåº§": 5001,
      "åİ»åģļ": 5002,
      "è§Ħ": 5003,
      "è½¨": 5004,
      "æĪĳä»¬æĿ¥çİ©": 5005,
      "èĴĤç±³å¾Īä¼¤å¿ĥ": 5006,
      "èµ°åĲ§": 5007,
      "ä¸ĢåıªçĭĹ": 5008,
      "åģļåĩº": 5009,
      "å¯¹ä»ĸäºº": 5010,
      "åĢ¾": 5011,
      "æ°´é¾Ļå¤´": 5012,
      "åĳĬè¯īæĪĳä»¬": 5013,
      "æľīä¸Ģåıªå¤§": 5014,
      "è¯ķåĽ¾æĬĵä½ı": 5015,
      "æ¡¥": 5016,
      "çĶµèĦĳ": 5017,
      "æİ¥åıĹ": 5018,
      "æĪĳä¼ļç»Ļä½ł": 5019,
      "æľīä¸ĢåıªåĲįåı«éº¦åħĭæĸ¯": 5020,
      "éĻĦè¿ĳçİ©èĢį": 5021,
      "åı¦ä¸Ģè¾¹": 5022,
      "ä¸ĢçĽ´åľ¨": 5023,
      "å°ģä¿¡": 5024,
      "æµ´ç¼¸": 5025,
      "éĽķåĥı": 5026,
      "çļĦä¸Ģå¤©": 5027,
      "åı½": 5028,
      "ä½©": 5029,
      "ä¸Ģä¸ªæĭ¥æĬ±": 5030,
      "åĴĮåħ´å¥ĭ": 5031,
      "ä¸įçĶ¨": 5032,
      "ä½Ĩå¦Īå¦Īè¯´": 5033,
      "ä½ĨæľīæĹ¶åĢĻ": 5034,
      "åĨĽ": 5035,
      "ä¸ºä½ł": 5036,
      "éģĵåĪ«": 5037,
      "åĲįåı«æ±¤å§Ĩ": 5038,
      "éĺ±": 5039,
      "éĽħ": 5040,
      "å¥¹çļĦå¦Īå¦Īç¬ĳçĿĢè¯´": 5041,
      "æľīä¸Ģä¸ªå°ıå¥³åŃ©åı«èĭı": 5042,
      "çĪ¬åĪ°": 5043,
      "å¾ħåľ¨": 5044,
      "èĲ¨æĭīè¯´": 5045,
      "ç²īç¬Ķ": 5046,
      "åĳ¼åĲ¸": 5047,
      "å¥ĸåĬ±": 5048,
      "èĶĵ": 5049,
      "æ¯ĽèĮ¸èĮ¸çļĦ": 5050,
      "æ¡ĥåŃĲ": 5051,
      "è¶³å¤ŁçļĦ": 5052,
      "éĻ·éĺ±": 5053,
      "èľ¡çĥĽ": 5054,
      "æĹĹåŃĲ": 5055,
      "é¢¤æĬĸ": 5056,
      "ç£ģéĵģ": 5057,
      "çļĦé¸ŁåĦ¿": 5058,
      "å¥¹å¾Īå®³æĢķ": 5059,
      "åľ¨å¤§": 5060,
      "å¤§èĪ¹": 5061,
      "å¯¹ä½ł": 5062,
      "å¹²èįī": 5063,
      "åĪĨäº«ç»Ļ": 5064,
      "çļĦå°ıå¼Łå¼Ł": 5065,
      "åĴĮå¥¹çļĦçİ©åħ·": 5066,
      "éĩĮéĿ¢æľī": 5067,
      "éĻ¢åŃĲ": 5068,
      "èĤ©": 5069,
      "ç¬Ķè®°": 5070,
      "å¢ĥ": 5071,
      "åıĺæĪĲäºĨä¸Ģåıª": 5072,
      "èµ¶ç´§": 5073,
      "è§£åĨ³éĹ®é¢ĺ": 5074,
      "Tweetie": 5075,
      "æµĭè¯ķ": 5076,
      "çļĦæĹ¥åŃĲéĩĮ": 5077,
      "Mim": 5078,
      "ny": 5079,
      "ä»ĸåĲĳ": 5080,
      "äºĨä»ĸä»¬": 5081,
      "åħĦ": 5082,
      "ä»ĸä»¬åĽŀåĪ°": 5083,
      "ä»ĸä»¬çľĭåĪ°ä¸Ģ": 5084,
      "èİīèİīéĿŀå¸¸åĸľæ¬¢": 5085,
      "èİīèİīå¾Īé«ĺåħ´èĥ½": 5086,
      "è¿Ļä¸įæĺ¯": 5087,
      "ä½łäºĨ": 5088,
      "å½ĵä»ĸä»¬åľ¨": 5089,
      "åĿĬ": 5090,
      "éķ¿æ»¡äºĨ": 5091,
      "æĥĬåı¹": 5092,
      "ä¸įåĨįå®³æĢķ": 5093,
      "æ¤Ĵ": 5094,
      "ç§ĭåįĥä¸Ĭ": 5095,
      "æĴĴ": 5096,
      "çĥ¤ç®±éĩĮ": 5097,
      "æ¹ĸè¾¹": 5098,
      "æ²Ļåıĳä¸Ĭ": 5099,
      "å¤ªéĺ³å¼Ģå§ĭèĲ½å±±": 5100,
      "Mimi": 5101,
      "ĠèĴĤç±³": 5102,
      "ä»ĸæ¯ıå¤©éĥ½": 5103,
      "å¥¹æ¯ıå¤©éĥ½": 5104,
      "æī¶": 5105,
      "ä¸ĬåŃ¦": 5106,
      "åĸľæ¬¢åĴĮä»ĸçļĦ": 5107,
      "å¥¹çļĦå®¶äºº": 5108,
      "å¹¿": 5109,
      "æĢĢ": 5110,
      "èĴĤç±³åĸľæ¬¢åľ¨": 5111,
      "çİ°ä»£": 5112,
      "èµ°åĬ¨": 5113,
      "å¯¹çĿĢ": 5114,
      "æĦŁè§īåĪ°": 5115,
      "åı£æ°Ķ": 5116,
      "å¸¦çĿĢå®ĥ": 5117,
      "äº¤è°Ī": 5118,
      "çĳľä¼": 5119,
      "åľĨåľĪ": 5120,
      "åº¦è¿ĩäºĨä¸Ģä¸ªæĦīå¿«çļĦä¸Ģå¤©": 5121,
      "çıłå®Ŀ": 5122,
      "çĪ¬ä¸ĬäºĨæłĳ": 5123,
      "ä¼¼ä¹İ": 5124,
      "ç£¨åĿĬ": 5125,
      "çļĦèĻ«åŃĲ": 5126,
      "çĳľä¼½": 5127,
      "Ġæľ¬è¯´": 5128,
      "ä»ĸçľĭçĿĢ": 5129,
      "å¥¹ä¹Ł": 5130,
      "å®ģ": 5131,
      "ä»ĸä»¬è¦ģ": 5132,
      "å¾Īæ¼Ĥäº®": 5133,
      "å¾Īåıĭå¥½": 5134,
      "èİīèİīéĿŀå¸¸": 5135,
      "èİīèİīåŃ¦ä¼ļäºĨ": 5136,
      "é¸Łå·¢": 5137,
      "çº§": 5138,
      "åħ³ä¸Ĭ": 5139,
      "ä½łä»¬åı¯ä»¥": 5140,
      "å®ĮåĲİ": 5141,
      "åıĺå¾Ĺè¶ĬæĿ¥è¶Ĭ": 5142,
      "æ´»åĬ¨": 5143,
      "å®ĥçļĦæľĭåıĭä»¬": 5144,
      "çľĭåĪ°äºĨä¸Ģæ£µ": 5145,
      "ä¹İä¹İ": 5146,
      "æĤĶ": 5147,
      "çĪ¬ä¸Ĭæłĳ": 5148,
      "çĥ¤ç®±": 5149,
      "èīĺèĪ¹": 5150,
      "çĮ«åĴĮçĭĹ": 5151,
      "è¡£æŁľéĩĮ": 5152,
      "ä½łè¿ĺå¥½åĲĹ": 5153,
      "ç¬Ķè®°æľ¬": 5154,
      "Fin": 5155,
      "å¥¹æį¡èµ·æĿ¥": 5156,
      "ä»ĸä»¬ä¹Ł": 5157,
      "çľī": 5158,
      "èİīèİīæĬĬ": 5159,
      "æĪĳä¸įä¼ļ": 5160,
      "æĥ³èµ·": 5161,
      "åı«ä»Ģä¹Ī": 5162,
      "ä¸Ģèµ·çİ©äºĨä¸Ģæķ´å¤©": 5163,
      "åģļå¥½": 5164,
      "çĶ·åŃ©è¯´": 5165,
      "çĶ¨å¥¹çļĦ": 5166,
      "å¸¦åĪ°": 5167,
      "æīĭèĩĤ": 5168,
      "èĭıè¥¿": 5169,
      "æ¸¸ä¹Ĳ": 5170,
      "äºİæĺ¯ä»ĸ": 5171,
      "æįķ": 5172,
      "èĩªå·±çļĦçİ©åħ·": 5173,
      "æī¾åĪ°äºĨå®ĥ": 5174,
      "ä¸īè§Ĵ": 5175,
      "å®ĥå¾Īæ¼Ĥäº®": 5176,
      "ä¸Ģä¸ªå°ıçĶ·åŃ©åı«èĴĤå§Ĩ": 5177,
      "ä¾¿å®ľ": 5178,
      "é¡¹åľĪ": 5179,
      "åĲĥæİīå®ĥ": 5180,
      "éĻªä¼´": 5181,
      "åĩīçĪ½": 5182,
      "æĮĳéĢī": 5183,
      "åĩłå¤©åĲİ": 5184,
      "éģµå®Ī": 5185,
      "ä¸īè§Ĵå½¢": 5186,
      "Ben": 5187,
      "Polly": 5188,
      "èĵ¬": 5189,
      "å¥¹ç©¿ä¸Ĭ": 5190,
      "å¥¹æľĢåĸľæ¬¢çļĦçİ©åħ·": 5191,
      "ä¸Ģä¸ªæľĭåıĭ": 5192,
      "èİīèİīæĦıè¯ĨåĪ°": 5193,
      "æĪĳæĥ³åĴĮ": 5194,
      "å®ĥå¼Ģå§ĭ": 5195,
      "è¿Ļåľº": 5196,
      "è¿Ļå¼ł": 5197,
      "å¥¹çļĦåĵ¥åĵ¥": 5198,
      "èĴĤå§ĨéĹ®": 5199,
      "åºĵ": 5200,
      "å¿«è¦ģ": 5201,
      "ä¸Ģåıªå¤§é¸Ł": 5202,
      "çŁ¥éģĵèĩªå·±": 5203,
      "é¡µ": 5204,
      "æŀľå®ŀ": 5205,
      "å¾Ĺå¾Īè¿ľ": 5206,
      "æīĵæŀ¶": 5207,
      "æĬĵèµ·": 5208,
      "åĴĮå¥¹çļĦæľĭåıĭ": 5209,
      "ä¸įåĨįéĤ£ä¹Ī": 5210,
      "èİīèİīçļĦçĪ¸çĪ¸": 5211,
      "æ´Ĺå¹²åĩĢ": 5212,
      "æľīæĹ¶åĢĻäºĭæĥħ": 5213,
      "åĭĩæķ¢åľ°": 5214,
      "å±ķç¤ºç»Ļ": 5215,
      "åĲĪéĢĤ": 5216,
      "æ¢¦è§ģäºĨ": 5217,
      "æĺ¯ä¸ªå¥½": 5218,
      "å°ĸéĶĲ": 5219,
      "æ½ľ": 5220,
      "ç¬¨æĭ": 5221,
      "ä¸īå²ģäºĨ": 5222,
      "çŁ¥éģĵä»ĸå¿ħé¡»": 5223,
      "..": 5224,
      "çļĦåĨĴéĻ©": 5225,
      "ä»ĸæľīä¸Ģä¸ª": 5226,
      "ä»ĸå¦Īå¦Īè¯´": 5227,
      "åľ¨æłĳ": 5228,
      "ä»ĸä»¬å¾Ī": 5229,
      "ä»ĸä»¬åĲ¬åĪ°äºĨ": 5230,
      "åĴĮé«ĺåħ´": 5231,
      "åĴĮå®³æĢķ": 5232,
      "æī¯": 5233,
      "æľīä¸Ģä¸ªçĶ·åŃ©": 5234,
      "è°Ĭ": 5235,
      "çĽ¹": 5236,
      "çī©åĵģ": 5237,
      "ä¸Ģåıªå°ı": 5238,
      "åıĳçİ°äºĨä¸Ģé¢Ĺ": 5239,
      "æ´Ĺç¢Ĺ": 5240,
      "æĳĺä¸ĭ": 5241,
      "æ¤ħåŃĲä¸Ĭ": 5242,
      "åį³ä½¿æĺ¯": 5243,
      "æµ·æ»©ä¸Ĭ": 5244,
      "åľ¨ä¸Ģä¸ªå¤§æ£®æŀĹéĩĮ": 5245,
      "çł´ç¢İçļĦ": 5246,
      "ä¸Ģæ£µå¤§æłĳä¸ĭ": 5247,
      "Zo": 5248,
      "le": 5249,
      "uc": 5250,
      "å¥¹éľĢè¦ģ": 5251,
      "åľ¨åİ¨æĪ¿éĩĮ": 5252,
      "ä»ĸä»¬åĲĳ": 5253,
      "å¸ķ": 5254,
      "ä¸Ģä¸ªçİ©åħ·": 5255,
      "æĦĪ": 5256,
      "ä½Ĩä½łå¿ħé¡»": 5257,
      "æľīä¸Ģå¤´": 5258,
      "åıĭè°Ĭ": 5259,
      "æľīä¸Ģä¸ªå¿«ä¹ĲçļĦ": 5260,
      "å¼Ģå§ĭäºĨ": 5261,
      "çŃĳ": 5262,
      "è¿ĺç»Ļ": 5263,
      "æīĭæİ¨è½¦": 5264,
      "å¥¹åĸľæ¬¢æ¯ıå¤©": 5265,
      "æİīåľ¨äºĨ": 5266,
      "ä½¿åĬ²": 5267,
      "ä¸ĬéĿ¢åĨĻçĿĢ": 5268,
      "å¤§å®¶éĥ½å¾Īé«ĺåħ´": 5269,
      "æĵ¦å¹²": 5270,
      "åģĩè£ħèĩªå·±": 5271,
      "è¯ķè¯ķçľĭ": 5272,
      "åĽŀå®¶çļĦè·¯ä¸Ĭ": 5273,
      "çľŁæĺ¯å¤ª": 5274,
      "æ¹¿æ¼īæ¼īçļĦ": 5275,
      "åı«ä»Ģä¹ĪåĲįåŃĹ": 5276,
      "Tom": 5277,
      "Ġå°ıå¥³åŃ©": 5278,
      "çļĦåĳ³éģĵ": 5279,
      "ä»ĸè®¤ä¸º": 5280,
      "åľ¨è·¯ä¸Ĭ": 5281,
      "æĿĲ": 5282,
      "æĪĳå°±": 5283,
      "æī®": 5284,
      "ä½Ĩä¹Ł": 5285,
      "ä»ĸçļĦè½¦": 5286,
      "çĦ¦": 5287,
      "åı¯ä»¥çļĦ": 5288,
      "çĲĥåĴĮ": 5289,
      "å¼Ģå¿ĥåľ°": 5290,
      "æľĢç»Ī": 5291,
      "èĢĮæĦŁåĪ°": 5292,
      "æĶ¾åľ¨ä¸Ģä¸ª": 5293,
      "èİīèİīåĴĮå¦Īå¦Ī": 5294,
      "æĳĩæĳĨ": 5295,
      "é¤Ĳåİħ": 5296,
      "æ²Ļæĭī": 5297,
      "åĲĵåĿıäºĨ": 5298,
      "é¼ĵåĬ±": 5299,
      "éªĳå£«": 5300,
      "èħ°": 5301,
      "Buddy": 5302,
      "è´µçļĦ": 5303,
      "éĤ£æ£µæłĳ": 5304,
      "çľīå¤´": 5305,
      "çļĦé±¼": 5306,
      "ä»ĸè·ĳ": 5307,
      "äºĨåı£æ°Ķ": 5308,
      "åľ¨çİ©èĢį": 5309,
      "éĩĩ": 5310,
      "å®ĥçľĭèµ·æĿ¥": 5311,
      "éĿŀå¸¸åıĭå¥½": 5312,
      "ä»ĸçļĦæĸ°": 5313,
      "å¼Ģå§ĭä¸ĭéĽ¨äºĨ": 5314,
      "åģļå¾Ĺå¾Īå¥½": 5315,
      "æ°´èĬ±": 5316,
      "è¿ĺæľīä¸Ģä¸ª": 5317,
      "çļĦèģ": 5318,
      "çģ«å±±": 5319,
      "è¶Ĭé«ĺ": 5320,
      "åĲ¦åĪĻ": 5321,
      "èĤł": 5322,
      "å°½å¿«": 5323,
      "åĳĬè¯īå¥¹åħ³äºİ": 5324,
      "äº¤æľĭåıĭ": 5325,
      "ä¸įä¼ļå¿ĺè®°": 5326,
      "åĲĪä½ľ": 5327,
      "è·³è·ĥåĴĮ": 5328,
      "æĿ¥åĪ°äºĨåħ¬åĽŃ": 5329,
      "åıĤè§Ĥ": 5330,
      "ä¼¸æīĭ": 5331,
      "æĮĤåľ¨": 5332,
      "å¾Īå¿«å°±ä¼ļ": 5333,
      "oppy": 5334,
      "å®ģéĿĻ": 5335,
      "ä¸Ģä»½": 5336,
      "å¥¹åĲĳ": 5337,
      "èİīèİīä¸º": 5338,
      "èİīèİīæĦŁè§īå¥½å¤ļäºĨ": 5339,
      "ä¹ĺ": 5340,
      "ä¸įåĬ¨": 5341,
      "ç»Ĭ": 5342,
      "æĥ³å¸®å¿Ļ": 5343,
      "ä½Ĩå®ĥä»¬": 5344,
      "éĿŀå¸¸å¥½": 5345,
      "åıªèĥ½": 5346,
      "æĸ§": 5347,
      "åĲİæĤĶ": 5348,
      "åı¯è´´": 5349,
      "çľĭåĪ°äºĨè®¸å¤ļ": 5350,
      "è¿Ļä¸ªçĲĥ": 5351,
      "åģļä¸įåĪ°": 5352,
      "åħ¬çīĽ": 5353,
      "éĻħ": 5354,
      "è´¹": 5355,
      "è´Ł": 5356,
      "åĽŀå®¶çļĦæĹ¶éĹ´": 5357,
      "è¢ľåŃĲ": 5358,
      "ç»ĵå±Ģ": 5359,
      "æĸĳçĤ¹åĴĮ": 5360,
      "çĽ¸æľº": 5361,
      "çĿ¡è§īæĹ¶": 5362,
      "å¢¨": 5363,
      "éģĩåĪ°äºĨä¸ĢåıªåĲįåı«": 5364,
      "åĽ¢ç»ĵ": 5365,
      "ä¸ĸçķĮä¸Ĭ": 5366,
      "åĪĽåı¯è´´": 5367,
      "åĴĮä»ĸä¸Ģèµ·çİ©": 5368,
      "ä¸Ģä¸ªåĲįåı«èĭıçļĦå°ıå¥³åŃ©": 5369,
      "ä¸Ģä¸ªåĲįåı«èĭıçļĦå¥³åŃ©": 5370,
      "å¾ĭå¸Ī": 5371,
      "ç«ŀäºī": 5372,
      "åħĦå¼Ł": 5373,
      "ä»ĸè·³": 5374,
      "å¥¹å¾Īä¼¤å¿ĥ": 5375,
      "æľīçĶ¨": 5376,
      "å°ĺ": 5377,
      "åľ¨èįīåľ°ä¸Ĭ": 5378,
      "çİ©ç¬ĳ": 5379,
      "æĺ¯è°ģ": 5380,
      "èİīèİīæĦŁåĪ°å¾Īéļ¾è¿ĩ": 5381,
      "èİīèİīéĿŀå¸¸åħ´å¥ĭåľ°": 5382,
      "ä¸įä½ı": 5383,
      "å®ĥåı¯ä»¥": 5384,
      "ç±³èĬ±": 5385,
      "å¼Ģåħ³": 5386,
      "æĢ¨": 5387,
      "æĪĳä»¬èĥ½": 5388,
      "çŁĽ": 5389,
      "ä¹Łæĺ¯": 5390,
      "éĢĶ": 5391,
      "æľīä¸Ģåıªå°ıé¸Ł": 5392,
      "æĬ±æĢ¨": 5393,
      "åıĺå¾Ĺå¹²åĩĢ": 5394,
      "èĥ³èĨĬ": 5395,
      "åĽŀåĪ°å®¶éĩĮ": 5396,
      "æĺŁæľŁ": 5397,
      "å¼ĦèĦı": 5398,
      "å²©": 5399,
      "å²Ľ": 5400,
      "åıĳçİ°äºĨä¸Ģä¸ªå¤§ç®±åŃĲ": 5401,
      "ä¸Ģåľºå¤§": 5402,
      "èĥ¶å¸¦": 5403,
      "Fluff": 5404,
      "çĪĨç±³èĬ±": 5405,
      "æĽ¾ç»ı": 5406,
      "å²¸è¾¹": 5407,
      "é£ŀæĿ¥é£ŀåİ»": 5408,
      "æĸ§å¤´": 5409,
      "Fluffy": 5410,
      "äº§": 5411,
      "ä»ĸå¾Īå®³æĢķ": 5412,
      "äºĨæĥ³": 5413,
      "æľīä¸Ģåº§": 5414,
      "éĿŀå¸¸æĵħéķ¿": 5415,
      "èĴĤå§ĨçļĦæľĭåıĭ": 5416,
      "æĦŁåĪ°å¾Īå¼Ģå¿ĥ": 5417,
      "å¼Ģå¿ĥäºĨ": 5418,
      "æıī": 5419,
      "ä»Ģä¹Īä¸ľè¥¿": 5420,
      "äºİæĺ¯ä»ĸä»¬": 5421,
      "ä¸įçŁ¥éģĵæĢİä¹Ī": 5422,
      "çļĦå°ıèĢģé¼ł": 5423,
      "åı£é¦Ļ": 5424,
      "çĶŁæ´»åľ¨": 5425,
      "æĦŁè§īå¥½äºĽ": 5426,
      "é»ĳèī²çļĦ": 5427,
      "æħ¢è·ĳ": 5428,
      "è¿Ļä¸ªæķħäºĭåĳĬè¯īæĪĳä»¬": 5429,
      "éĶĻäºĨ": 5430,
      "è¡Ĺä¸Ĭ": 5431,
      "çĹĽèĭ¦": 5432,
      "éĴ¢çĲ´": 5433,
      "åı£é¦Ļç³ĸ": 5434,
      "Doggy": 5435,
      "Nu": 5436,
      "å®ĩ": 5437,
      "è¿¹": 5438,
      "åĴĮçĭĹ": 5439,
      "åĴĮä¼¤å¿ĥ": 5440,
      "æīĳ": 5441,
      "åİ»åıĤåĬł": 5442,
      "çĭł": 5443,
      "æ³ª": 5444,
      "èµ°æĿ¥": 5445,
      "éĿ¢åħ·": 5446,
      "åĲĥä¸ĢäºĽ": 5447,
      "å¯¹åĪ«äºº": 5448,
      "æīĵåį°": 5449,
      "æĶ¾æĿ¾": 5450,
      "æıĲç±³è¯´": 5451,
      "éĴ©": 5452,
      "èī¾æĭī": 5453,
      "æĹłç¤¼": 5454,
      "çģ«é¸¡": 5455,
      "è¯·åĲ§": 5456,
      "çľĭçľĭåıĳçĶŁäºĨä»Ģä¹Īäºĭ": 5457,
      "ä½Ĩä»ĸè¿ĺæĺ¯": 5458,
      "æĭħå¿§": 5459,
      "è¿ĩæĿ¥çİ©": 5460,
      "æĦıè¯ĨåĪ°èĩªå·±": 5461,
      "çī¹åĪ«çļĦä¸ľè¥¿": 5462,
      "æľīä¸ĢåıªåĲįåı«Max": 5463,
      "äº«åıĹäºĨ": 5464,
      "èİīèİīæĥ³äºĨä¸Ģä¸ĭ": 5465,
      "æĪĳä¹Łåĸľæ¬¢": 5466,
      "èµ°è·¯æĹ¶": 5467,
      "å¼Ħå¾Ĺä¸ĢåĽ¢ç³Ł": 5468,
      "ģæ¥¼": 5469,
      "ĳèı": 5470,
      "ĺĳèı": 5471,
      "ä»ĸä»¬è§īå¾Ĺ": 5472,
      "ä¸įå·²": 5473,
      "è¯´å¾Ĺå¯¹": 5474,
      "å®ĥèĥ½": 5475,
      "å¦Īå¦Īå¾®ç¬ĳçĿĢè¯´": 5476,
      "æĹ¶åĪ»": 5477,
      "æĬĬæīĭ": 5478,
      "å½ĵä»ĸåľ¨": 5479,
      "å¤ļæ±ģ": 5480,
      "çľĭåĪ°äºĨè¿Ļ": 5481,
      "åĿ¡": 5482,
      "ä½Ĩæĺ¯å½ĵä»ĸ": 5483,
      "é£ŀå¾Ĺå¾Īé«ĺ": 5484,
      "éĺģæ¥¼": 5485,
      "ç§¤": 5486,
      "å®īè¿ª": 5487,
      "æīĭä¸Ń": 5488,
      "éķ¯": 5489,
      "å¾Īå¤ļä¸ľè¥¿": 5490,
      "åĴĮä»ĸçļĦå®¶äºº": 5491,
      "èİīèİīåĴĮé©¬åħĭæĸ¯": 5492,
      "åıĺå¾ĹæĽ´å¥½": 5493,
      "åģľäºĨä¸ĭæĿ¥": 5494,
      "åį¡éĢļ": 5495,
      "çŃīçĿĢ": 5496,
      "åº¦è¿ĩäºĨæĦīå¿«çļĦæĹ¶åħī": 5497,
      "èĵĿé¸Ł": 5498,
      "ä¸ºä»Ģä¹Īä¸į": 5499,
      "æĥ³åĴĮå®ĥ": 5500,
      "æ¿Ģåħī": 5501,
      "è®¤çľŁ": 5502,
      "é¦ĻèĤł": 5503,
      "å¥¹åĸľæ¬¢åľ¨éĺ³åħīä¸ĭåľ¨å¤ĸéĿ¢çİ©èĢį": 5504,
      "èº²èµ·æĿ¥": 5505,
      "è¿Ļä½įå¥³å£«": 5506,
      "çģµæ´»": 5507,
      "ç½Ĺè¥¿": 5508,
      "è°¦éĢĬ": 5509,
      "ĺĳèıĩ": 5510,
      "èª": 5511,
      "ä»ĸåĳĬè¯ī": 5512,
      "å¥¹ä¸įåĸľæ¬¢": 5513,
      "ä»ĸä»¬æĺ¯": 5514,
      "å°ıæĹ¶": 5515,
      "çľĭä¸įåĪ°": 5516,
      "æľīä¸ĢåĿĹ": 5517,
      "å¥½æ¼Ĥäº®": 5518,
      "ä»ĸçļĦå®¶äºº": 5519,
      "ç¬ĳå¾Ĺå¾Īå¼Ģå¿ĥ": 5520,
      "ç»Ļå¥¹çļĦ": 5521,
      "å½ĵèĴĤç±³": 5522,
      "äºĨä¸Ģæ£µ": 5523,
      "æĦıå¤ĸ": 5524,
      "åĵĶ": 5525,
      "æĦŁåĪ°éĿŀå¸¸å¼Ģå¿ĥ": 5526,
      "çĭĹè¯´": 5527,
      "è¿Ļä¸ªå¤§": 5528,
      "çĲĥæ»ļ": 5529,
      "éĹªåħī": 5530,
      "æľīè¶£äºĨ": 5531,
      "æ»¡æĦı": 5532,
      "ä¹°äºĨä¸Ģä¸ª": 5533,
      "è´Ŀé½Ĳ": 5534,
      "åİ»åħ¬åĽŃæķ£æŃ¥": 5535,
      "ç®¡åŃĲ": 5536,
      "æĬ¤å£«": 5537,
      "é»Ħæ²¹": 5538,
      "çĶ»çĶ»åĴĮ": 5539,
      "è´Ŀæģ©åĴĮèİīèİī": 5540,
      "é²ľèĬ±": 5541,
      "çĲĨåıĳå¸Ī": 5542,
      "çĿģå¼Ģ": 5543,
      "èĹ¤èĶĵ": 5544,
      "ä»ĸå¸¦çĿĢ": 5545,
      "æľīä¸¤ä¸ªæľĭåıĭ": 5546,
      "ä¸Ģä¸ªæĥĬåĸľ": 5547,
      "æĥľ": 5548,
      "åİ»åĮ»éĻ¢": 5549,
      "èĴĤå§ĨçľĭåĪ°": 5550,
      "å½ĵå®ĥ": 5551,
      "è½¦åºĵ": 5552,
      "åģļèĽĭç³ķ": 5553,
      "çĶ¨åĺ´å·´": 5554,
      "æľĢçĪ±": 5555,
      "ä¿±ä¹Ĳ": 5556,
      "åĨįæĿ¥": 5557,
      "æ²¡æľīæľĭåıĭ": 5558,
      "å°ıå¿ĥåľ°": 5559,
      "æĪĲä¸ºä¸Ģä¸ª": 5560,
      "çħ¤": 5561,
      "è¿Ļæł·çļĦ": 5562,
      "åĵįäº®": 5563,
      "äº«åıĹçĿĢ": 5564,
      "åľŁè±Ĩ": 5565,
      "åĵģå°Ŀ": 5566,
      "æĤ¬": 5567,
      "åĴĮå¥¹ä¸Ģèµ·çİ©": 5568,
      "æĦŁåıĹåĪ°äºĨ": 5569,
      "çĶŁçĹħäºĨ": 5570,
      "ä¿±ä¹Ĳéĥ¨": 5571,
      "çļĦæŃĮ": 5572,
      "ä¸ĢæĶ¯": 5573,
      "ä»ĸç»Ļ": 5574,
      "ä»ĸæį¡èµ·": 5575,
      "å¥¹ä¸į": 5576,
      "å¸ĺ": 5577,
      "è¿Ļè®©": 5578,
      "ä½łå¾Ī": 5579,
      "åİ»åĨĴéĻ©": 5580,
      "å½ķ": 5581,
      "æŀģäºĨ": 5582,
      "å¹¶ä¸İ": 5583,
      "ä½Ĩæĺ¯åĲİæĿ¥": 5584,
      "æĭ¿äºĨä¸ĢäºĽ": 5585,
      "ä¸Ńçİ©èĢį": 5586,
      "ä»ĸä»¬åľ¨éĤ£éĩĮ": 5587,
      "ä¹°ä¸ĢäºĽ": 5588,
      "æħ§": 5589,
      "ç¾İä¸½çļĦèĿ´èĿ¶": 5590,
      "çļĦçİ©åħ·è½¦": 5591,
      "å°Ŀè¯ķçĿĢ": 5592,
      "åĽ´æłı": 5593,
      "æ²Ļæ»©": 5594,
      "tty": 5595,
      "åĸĿæ°´": 5596,
      "åģļäºĨä»Ģä¹Ī": 5597,
      "ç´§ç´§æĬĵä½ı": 5598,
      "éĤ®ç¥¨": 5599,
      "çĥŁèĬ±": 5600,
      "ç²¾ç¥ŀ": 5601,
      "ç´«èī²çļĦ": 5602,
      "Sammy": 5603,
      "æĻºæħ§": 5604,
      "ä¸įåģľåľ°": 5605,
      "ä»°": 5606,
      "çļĦéĤ£": 5607,
      "äºĨåĲĹ": 5608,
      "æľ«": 5609,
      "è¯Ĺ": 5610,
      "ä»ĸä»¬èĥ½": 5611,
      "ä»ĸä»¬ä¸įæĥ³": 5612,
      "æĺ¯ä¸įå¥½çļĦ": 5613,
      "æĪĳæŃ£åľ¨": 5614,
      "ä¼Ł": 5615,
      "ä½ĨåĲİæĿ¥": 5616,
      "æĬĹ": 5617,
      "åİ»æĭľè®¿": 5618,
      "æĭĲ": 5619,
      "ä¼ļæľī": 5620,
      "æĬĬä»ĸçļĦ": 5621,
      "å¹¶æĬĬå®ĥ": 5622,
      "å¤ªå¿«äºĨ": 5623,
      "è¿ĺè¦ģ": 5624,
      "å¹²ä»Ģä¹Ī": 5625,
      "å¥¹åľ¨éĤ£éĩĮ": 5626,
      "éĩĮéĿ¢æľīå¾Īå¤ļ": 5627,
      "å»Ĭ": 5628,
      "å°½åı¯èĥ½": 5629,
      "æ£ĴçĲĥ": 5630,
      "åĩłåĪĨéĴŁ": 5631,
      "å¥ĸæĿ¯": 5632,
      "æĪĳä¼ļå¸®ä½łæī¾åĪ°": 5633,
      "çıįæĥľ": 5634,
      "æ£ķèī²çļĦ": 5635,
      "çĶ²èĻ«": 5636,
      "æľŁå¾ħçĿĢ": 5637,
      "æĸĩä»¶å¤¹": 5638,
      "çļĩåĨł": 5639,
      "Ġäºİæĺ¯": 5640,
      "çļĦèĢģ": 5641,
      "ä»ĸæį¡èµ·æĿ¥": 5642,
      "åĴĮæĦŁæ¿Ģ": 5643,
      "æĺ¯åıĮèĥŀèĥİ": 5644,
      "åĸ³": 5645,
      "ä½łæĢİä¹ĪäºĨ": 5646,
      "ä½ĨèĴĤç±³": 5647,
      "åıĳæĬĸ": 5648,
      "èī³": 5649,
      "æī¾åķĬ": 5650,
      "æ²¹æŀľ": 5651,
      "å½ĵå¤©": 5652,
      "å¹¶åĲĳ": 5653,
      "æ°´æĻ¶": 5654,
      "ç§Ł": 5655,
      "çľĭçĿĢä»ĸä»¬": 5656,
      "æĹłåĬ©": 5657,
      "èĥ¡åŃĲ": 5658,
      "æĥĬè®¶åľ°": 5659,
      "ä»ĸä»¬ä¸Ģèµ·åĬªåĬĽ": 5660,
      "èĲ½åı¶": 5661,
      "çīĽæ²¹æŀľ": 5662,
      "çł´åĿı": 5663,
      "ç²īèī²çļĦ": 5664,
      "åĽĽå¤Ħèµ°åĬ¨": 5665,
      "æīĶçĲĥ": 5666,
      "æ²³éĩĮ": 5667,
      "çļĦè·¯ä¸Ĭ": 5668,
      "åŁİåł¡éĩĮ": 5669,
      "éĩĳå±ŀ": 5670,
      "æĬ±ä½ıå¥¹è¯´": 5671,
      "åĴĮæĪĳä¸Ģèµ·çİ©": 5672,
      "ä¸ĽæŀĹéĩĮ": 5673,
      "æī¾åķĬæī¾": 5674,
      "re": 5675,
      "¾æ°Ķ": 5676,
      "çļĦæĸ¹æ³ķ": 5677,
      "å¥¹åĴĮå¦Īå¦Īä¸Ģèµ·": 5678,
      "åľ¨åķĨåºĹéĩĮ": 5679,
      "ä»ĸä»¬æĦŁè°¢": 5680,
      "èİīèİīéĿŀå¸¸å¼Ģå¿ĥ": 5681,
      "èİīèİīèµ°åĪ°": 5682,
      "æĿ¥å¸®åĬ©": 5683,
      "ä¼Ĺ": 5684,
      "éĿŀå¸¸é¥¿": 5685,
      "åĨ¬": 5686,
      "ä¸ºå¥¹çļĦ": 5687,
      "å¥³çİĭ": 5688,
      "åįļ": 5689,
      "å¤ļå½©": 5690,
      "è®©å¦Īå¦Ī": 5691,
      "åĩºç§Ł": 5692,
      "çī©ä½ĵ": 5693,
      "è¿Ļä¸ªçĶ·äºº": 5694,
      "å¤ªéļ¾": 5695,
      "é£ŀåĲĳ": 5696,
      "å¥¹åĸľæ¬¢çİ©": 5697,
      "å¤ĸéĿ¢çļĦ": 5698,
      "çŁ³å¤´ä¸Ĭ": 5699,
      "æľīä¸Ģä¸ªå°ıçĶ·åŃ©åĲįåı«": 5700,
      "æ¡Ĩ": 5701,
      "çĽ¸åıį": 5702,
      "ç¾İåĳ³çļĦèĽĭç³ķ": 5703,
      "å½©èī²çļĦ": 5704,
      "åĺ²": 5705,
      "æ©±": 5706,
      "ä¹Łè®¸æĪĳä»¬åı¯ä»¥": 5707,
      "éĩįè¦ģçļĦæĺ¯": 5708,
      "æ·±åĲ¸": 5709,
      "è¸¢è¶³çĲĥ": 5710,
      "è¯Ńè¨Ģ": 5711,
      "ç¬¼åŃĲéĩĮ": 5712,
      "é²ľèī³": 5713,
      "éģĩåĪ°äºĨä¸Ģä¸ªæĸ°æľĭåıĭ": 5714,
      "èµ°è¿ĳæĹ¶": 5715,
      "åı¹äºĨåı£æ°Ķ": 5716,
      "ä¸¥éĩį": 5717,
      "æ¢¨åŃĲ": 5718,
      "åĲ¬åĪ°äºĨä¸Ģä¸ªå£°éŁ³": 5719,
      "ç¾İå¦ĻçļĦ": 5720,
      "éĺ»æŃ¢": 5721,
      "ä¼ĺéĽħ": 5722,
      "èªĵ": 5723,
      "¬ī": 5724,
      "¹é¼ł": 5725,
      "å¬ī": 5726,
      "çļĦæĪ¿åŃĲ": 5727,
      "çļĦå¥³å£«": 5728,
      "ä»ĸéĿŀå¸¸åħ´å¥ĭ": 5729,
      "å¥¹åıĪ": 5730,
      "ä»ĸä»¬åŃ¦åĪ°äºĨ": 5731,
      "å¾Īè¿ľ": 5732,
      "èİīèİīçľĭåĪ°äºĨ": 5733,
      "æĪĳä¸įæĺ¯æķħæĦı": 5734,
      "å¿½": 5735,
      "å®ĥäºĨ": 5736,
      "æĿ¥æī¾": 5737,
      "å·«": 5738,
      "çĽĲ": 5739,
      "ä¸Ģåıªåı«åģļ": 5740,
      "åĲĥä¸ľè¥¿": 5741,
      "é¼¹é¼ł": 5742,
      "ä½łä»¬å¿ħé¡»": 5743,
      "èµ°äºĨè¿ĩæĿ¥": 5744,
      "éĵº": 5745,
      "æĬĬå®ĥå¸¦åĽŀå®¶": 5746,
      "å°Ŀè¯ķæĸ°äºĭçī©": 5747,
      "æĿ°åħĭè¯´": 5748,
      "çłĸ": 5749,
      "åĸĦèī¯åĴĮ": 5750,
      "åĴĮä»ĸçļĦæľĭåıĭä»¬ä¸Ģèµ·çİ©": 5751,
      "çļ®çī¹": 5752,
      "æīĢæľīçļĦåĬ¨çī©éĥ½": 5753,
      "ä»ĸä»¬ä¸Ģèµ·çİ©äºĨä¸Ģæķ´å¤©": 5754,
      "åº¦è¿ĩäºĨå¾Īå¤ļæ¬¢ä¹ĲæĹ¶åħī": 5755,
      "åıªè¦ģä½ł": 5756,
      "èĬĤå¥ı": 5757,
      "æ°´åĿĳéĩĮ": 5758,
      "çĨŁ": 5759,
      "éŀĭå¸¦": 5760,
      "æĬļæĳ¸": 5761,
      "zz": 5762,
      "ĸåŃĲ": 5763,
      "å¦»åŃĲ": 5764,
      "èµ¢äºĨ": 5765,
      "å¸Ĳ": 5766,
      "çİ©çĿĢ": 5767,
      "å¿į": 5768,
      "å¦Īå¦ĪåĳĬè¯īå¥¹": 5769,
      "ä½łåı«ä»Ģä¹ĪåĲįåŃĹ": 5770,
      "æľīä¸ĢæĬĬ": 5771,
      "éģĹ": 5772,
      "ç»Ļä½łä»¬": 5773,
      "èĩªçĦ¶": 5774,
      "äºĨä¸Ģå¼ł": 5775,
      "äºĭæķħ": 5776,
      "æľĢå¥½": 5777,
      "æ°´ç®¡": 5778,
      "ä¹ĲåŃĲ": 5779,
      "åĬ¨çī©åĴĮ": 5780,
      "ç»ĻäºĨèİīèİī": 5781,
      "å¤§æłĳä¸ĭ": 5782,
      "åĲīç±³": 5783,
      "åĪ»èĸĦ": 5784,
      "éŁ³ä¹Ĳå®¶": 5785,
      "æĪĳåĸľæ¬¢ä½łçļĦ": 5786,
      "åŃ¤åįķ": 5787,
      "ç¾Ĭæ¯Ľ": 5788,
      "éħ¸å¥¶": 5789,
      "åļ¼": 5790,
      "è¢«åĽ°åľ¨": 5791,
      "æŃ»äºĨ": 5792,
      "ç¬ĳå£°ä¸įæĸŃ": 5793,
      "ç¬¨æĭĻ": 5794,
      "å²©çŁ³": 5795,
      "åĩºç§Łè½¦": 5796,
      "ä»ĸåıĪ": 5797,
      "å¥¹çľĭåĪ°äºĨä¸Ģåıª": 5798,
      "åľ¨åĵŃ": 5799,
      "èİīèİīåıĳçİ°": 5800,
      "ä¸įå±ŀäºİ": 5801,
      "æī£": 5802,
      "ä½ĨæĪĳä»¬": 5803,
      "é«ĺå¤§": 5804,
      "ä¸ºä»ĸä»¬": 5805,
      "è¿ĩèº«": 5806,
      "åıĳèªĵ": 5807,
      "æī¾éģįäºĨ": 5808,
      "æĸ°å¥ĩ": 5809,
      "ç¾İé£Ł": 5810,
      "éĤ£ä¸ªå£°éŁ³": 5811,
      "è¿ĺä¼ļ": 5812,
      "è¡Įèµ°": 5813,
      "çĶ»åĩº": 5814,
      "æķĻåłĤ": 5815,
      "æ±¤å§ĨåĴĮç±³äºļ": 5816,
      "æ¢¦ä¸Ń": 5817,
      "æĭ¥æĬ±äºĨå¥¹": 5818,
      "æ¸ħæ´Ĺ": 5819,
      "èĴĤç±³çļĦå¦Īå¦ĪåĳĬè¯īä»ĸ": 5820,
      "æ²³æµģ": 5821,
      "ç²Ĺå¿ĥ": 5822,
      "æŃ£ç¡®çļĦ": 5823,
      "åİ»çĿ¡è§īäºĨ": 5824,
      "æľīä¸ĢåıªåĲįåı«æĸĳçĤ¹çļĦå°ıçĭĹ": 5825,
      "æĺ¯éĿŀå¸¸éĩįè¦ģçļĦ": 5826,
      "å¸Ĳç¯·": 5827,
      "µå£«": 5828,
      "ģé¹ħ": 5829,
      "çļĦä¸Ģä¸ª": 5830,
      "çļĦçĨĬ": 5831,
      "çļĦå¸½åŃĲ": 5832,
      "å¤º": 5833,
      "å¥¹å¸¦çĿĢ": 5834,
      "å§¨": 5835,
      "æĺ¯åľ¨": 5836,
      "å¾ĪèĦı": 5837,
      "å¿Ĩ": 5838,
      "ä¼ģé¹ħ": 5839,
      "çĪµå£«": 5840,
      "åı¯åı¯": 5841,
      "è¿ĩå¾Ĺ": 5842,
      "åħ¬å®¤": 5843,
      "å±Ĥ": 5844,
      "è¿ĺåı¯ä»¥": 5845,
      "ä¸Ģå¤©æĹ©æĻ¨": 5846,
      "æĶ¾åĽŀäºĨ": 5847,
      "åĨ³å¿ĥ": 5848,
      "ä¸ŃéĹ´": 5849,
      "åĮº": 5850,
      "æĭīçĿĢ": 5851,
      "æĸ¹åĲĳ": 5852,
      "åº¦è¿ĩçļĦ": 5853,
      "åľ¨åħ¬åĽŃéĩĮæķ£æŃ¥": 5854,
      "è¯·ä¸įè¦ģ": 5855,
      "å®īåħ¨æĹł": 5856,
      "åĸľæ¬¢åľ¨å¤©ç©ºä¸Ń": 5857,
      "åĶ±çĿĢ": 5858,
      "æķĻå¥¹": 5859,
      "åĬŀåħ¬å®¤": 5860,
      "ä¿¡æģ¯": 5861,
      "ä¸¤åįĬ": 5862,
      "èĬ±åĽŃéĩĮçİ©èĢį": 5863,
      "ä¸ĢåıªåĲįåı«é©¬åħĭæĸ¯": 5864,
      "åŁİå¸Ĥ": 5865,
      "åĽĽå¤Ħå¯»æī¾": 5866,
      "æĴŃ": 5867,
      "è¿Ļä¹Īå¤ļ": 5868,
      "æ¸ħæ´ģ": 5869,
      "æ²³é©¬": 5870,
      "éħ·äºĨ": 5871,
      "æģ¶æ¯Ĵ": 5872,
      "çģĮæľ¨ä¸Ľä¸Ń": 5873,
      "åģľæŃ¢äºĨåĵŃæ³£": 5874,
      "ä¸įæĺİçĻ½ä¸ºä»Ģä¹Ī": 5875,
      "éĴĵé±¼": 5876,
      "å¬īæĪı": 5877,
      "¨æħ": 5878,
      "ĬåŃĲ": 5879,
      "è¿ŀ": 5880,
      "ä»ĸä»¬ä¸¤ä¸ª": 5881,
      "å¾Īéħ·": 5882,
      "æĥ³åİ»": 5883,
      "éĤ£å°±æĺ¯": 5884,
      "ä½Ĩå¥¹çļĦå¦Īå¦Īè¯´": 5885,
      "æĬĬæĪĳçļĦ": 5886,
      "æī¾åĽŀäºĨ": 5887,
      "è°¨æħ": 5888,
      "æıĲåĩº": 5889,
      "ä¹ĲéĺŁ": 5890,
      "æ¸¸èīĩ": 5891,
      "äºİæĺ¯å¼Ģå§ĭ": 5892,
      "åħ´å¥ĭåľ°è¯´": 5893,
      "æĢİä¹Īæł·": 5894,
      "æĿ¾æłĳ": 5895,
      "çłį": 5896,
      "ä»ĸçļĦå¦Īå¦ĪåĳĬè¯īä»ĸ": 5897,
      "ç¡®å®ŀ": 5898,
      "é»ĳæĿ¿": 5899,
      "æ»ĳæ¢¯ä¸Ĭçİ©èĢį": 5900,
      "çľĭåĪ°äºĨä¸ĢæĿ¡": 5901,
      "æĳĺèĬ±": 5902,
      "æİ¢ç´¢åĳ¨åĽ´çļĦä¸ĸçķĮ": 5903,
      "åĪĽä½ľ": 5904,
      "åº¦è¿ĩäºĨå¾Īå¤ļä¹Ĳè¶£": 5905,
      "èĴĤå§ĨçļĦå¦Īå¦Īè¯´": 5906,
      "é£ŀè¡Įåĳĺ": 5907,
      "åĴĮå®ĥçİ©": 5908,
      "ä¸Ģåº§å¤§": 5909,
      "è´§è½¦": 5910,
      "åĪ·åŃĲ": 5911,
      "è°¨æħİ": 5912,
      "Sue": 5913,
      "ĭèŁ": 5914,
      "ä»ĸçľĭåĪ°äºĨä¸Ģåıª": 5915,
      "ä»ĸåĽĽå¤Ħå¼łæľĽ": 5916,
      "å¥¹åĳĬè¯īä»ĸ": 5917,
      "åľ¨åģļä»Ģä¹Ī": 5918,
      "èİīèİīçļĦå°ıå¼Łå¼Ł": 5919,
      "ä¸įå®ī": 5920,
      "æĥ§": 5921,
      "æľīä¸Ģæł¹": 5922,
      "åīĥ": 5923,
      "èĴĤå§ĨæĬĬ": 5924,
      "é¸Łè¯´": 5925,
      "æ±¤å§ĨçļĦçĶ·åŃ©": 5926,
      "åĲĥåįĪé¥Ń": 5927,
      "å¾Īé«ĺåħ´åľ°è¯´": 5928,
      "å¥¹åĸľæ¬¢åĴĮå¦Īå¦Īä¸Ģèµ·": 5929,
      "çľŁå¥½": 5930,
      "åı£æ¸´": 5931,
      "æĳĶä¸ĭæĿ¥": 5932,
      "åĸ·æ°´": 5933,
      "æ·±åĪ»": 5934,
      "æĪ·å¤ĸ": 5935,
      "Buzz": 5936,
      "çĩķ": 5937,
      "éĹ®å¥¹æĢİä¹ĪäºĨ": 5938,
      "åį°è±¡": 5939,
      "å¸¦å¥¹åİ»": 5940,
      "æĬ¥çº¸": 5941,
      "ç¯®çĲĥ": 5942,
      "è´Ńçī©": 5943,
      "è¶ħçº§": 5944,
      "æĳ¸äºĨæĳ¸": 5945,
      "åĩłä¸ªå°ıæĹ¶": 5946,
      "çĿģå¼Ģçľ¼çĿĽ": 5947,
      "ĭèŁĢ": 5948,
      "æ¦": 5949,
      "ĸåķ": 5950,
      "ä»ĸå¿ħé¡»": 5951,
      "åĴĸåķ": 5952,
      "å¤§åı«": 5953,
      "ä»İåĵªéĩĮ": 5954,
      "æ¬ł": 5955,
      "ä½łå¤ª": 5956,
      "æĥ³åĩºäºĨä¸Ģä¸ª": 5957,
      "ä½Ĩè¿Ļæ¬¡": 5958,
      "èĴĤå§Ĩè§īå¾Ĺ": 5959,
      "çī©é¦Ĩ": 5960,
      "åĲĥçĤ¹": 5961,
      "è¾Ľ": 5962,
      "åıĳçİ°å®ĥ": 5963,
      "çŃ¾": 5964,
      "å¸¦åĽŀ": 5965,
      "æĶ¾äºĨ": 5966,
      "èĭıåĴĮ": 5967,
      "æıĲç±³éĿŀå¸¸é«ĺåħ´": 5968,
      "æł·çļĦ": 5969,
      "çªģçĦ¶éĹ´": 5970,
      "é¥¥": 5971,
      "åħĶåŃĲè¯´": 5972,
      "è±¹": 5973,
      "ç»§ç»Ńåīį": 5974,
      "æĬĵåĪ°": 5975,
      "ç³ķçĤ¹": 5976,
      "åĹ¯": 5977,
      "çł´è£Ĥ": 5978,
      "åħ¥çĿ¡": 5979,
      "æ¯ĶåĪ©è¯´": 5980,
      "è¸ı": 5981,
      "èģļä¼ļ": 5982,
      "æĿĳåºĦéĩĮ": 5983,
      "Blue": 5984,
      "èĵ¬æĿ¾": 5985,
      "Nutty": 5986,
      "åįļçī©é¦Ĩ": 5987,
      "åĴĸåķ¡": 5988,
      "æĨ": 5989,
      "äºķ": 5990,
      "çļĦåı¯çĪ±": 5991,
      "ä¸Ģäºº": 5992,
      "ä¸Ģèīĺ": 5993,
      "åĴĮåĬ¨çī©": 5994,
      "èİīèİīåİ»": 5995,
      "åıªéľĢè¦ģ": 5996,
      "åľ°ä¸ĭ": 5997,
      "å¸®å¥¹": 5998,
      "å®¶æĹ¶": 5999,
      "çľĭåĪ°å®ĥ": 6000,
      "å¹¶å¯¹": 6001,
      "æĦŁåĪ°å¾Īä¼¤å¿ĥ": 6002,
      "åģļåĪ°äºĨ": 6003,
      "è·ĳå¾ĹéĿŀå¸¸å¿«": 6004,
      "æĸ°é²ľ": 6005,
      "å¥¹çļĦå¦Īå¦Īå¾®ç¬ĳçĿĢè¯´": 6006,
      "èĢĮæĦŁåĪ°é«ĺåħ´": 6007,
      "äº«çĶ¨": 6008,
      "æ¯Ķä»¥åīį": 6009,
      "éķ¿ç¬Ľ": 6010,
      "åİ»äºĨåİ¨æĪ¿": 6011,
      "åħ³ä¸ĬäºĨ": 6012,
      "çĪ¬è¡Į": 6013,
      "åĿĲçĿĢ": 6014,
      "æĿ¾äºĨä¸Ģåı£æ°Ķ": 6015,
      "è½¬è¿ĩèº«": 6016,
      "é¦Ļæ°´": 6017,
      "åĽ¢éĺŁ": 6018,
      "æĤ¦": 6019,
      "éŃĶæ³ķæ£Ĵ": 6020,
      "å¼¹çıł": 6021,
      "ç²Ĺç³": 6022,
      "æģĲæĥ§": 6023,
      "æļĸåĴĮçļĦ": 6024,
      "åŃ¦åĪ°äºĨä¸Ģä¸ªæķĻè®Ń": 6025,
      "ç¯®åŃĲéĩĮ": 6026,
      "å¹¶æī¿è¯ºä¼ļ": 6027,
      "å¤¹åħĭ": 6028,
      "ç¨įå¾®": 6029,
      "æľĢå¿«çļĦéĢŁåº¦": 6030,
      "çļĦèº«ä½ĵ": 6031,
      "ĠâĢľ": 6032,
      "Ģèŀº": 6033,
      "ä»ĸåŃ¦åĪ°äºĨ": 6034,
      "åľ¨æ°´éĩĮ": 6035,
      "å¾Īæ£Ĵ": 6036,
      "èİīèİīå¾ĪæĥĬè®¶": 6037,
      "å¼ĵ": 6038,
      "å®ĥåıĪå¤§åıĪ": 6039,
      "è¿Ļæľ¬": 6040,
      "ä½łæľī": 6041,
      "ä½Ĩå½ĵä»ĸ": 6042,
      "æľīä¸Ģé¢Ĺ": 6043,
      "éĹ²": 6044,
      "è·¤": 6045,
      "ä»¥ä¾¿": 6046,
      "ä»¥æľĢå¿«çļĦéĢŁåº¦": 6047,
      "ä»ĸçļĦå¦¹å¦¹": 6048,
      "éĿ¢ç²ī": 6049,
      "å¼Ģå§ĭç§»åĬ¨": 6050,
      "è¿Ļä¸ªæ¸¸æĪı": 6051,
      "èĬĴ": 6052,
      "éĻĢèŀº": 6053,
      "æīĭçīµ": 6054,
      "è£¤åŃĲ": 6055,
      "çľĭçĿĢä»ĸ": 6056,
      "æİīè¿Ľ": 6057,
      "çĶµæ¢¯": 6058,
      "çĶµçº¿": 6059,
      "å¡ĳ": 6060,
      "åĴĮä»ĸçļĦæľĭåıĭä»¬ä¸Ģèµ·": 6061,
      "ç¡®å®ļ": 6062,
      "ä¸īä¸ª": 6063,
      "æ£Ĵç³ĸ": 6064,
      "æ£Ĵæ£Ĵç³ĸ": 6065,
      "æĭ¥æĬ±äºĨä»ĸ": 6066,
      "åĴĮæľĭåıĭä»¬ä¸Ģèµ·": 6067,
      "ä¸Ģæ£µæłĳä¸Ĭ": 6068,
      "æĤĦ": 6069,
      "è½®åĪ°": 6070,
      "å¯Ĩæĸ¯": 6071,
      "åĮ»çĶŁè¯´": 6072,
      "ä»ĸçŁ¥éģĵèĩªå·±": 6073,
      "çģ°èī²çļĦ": 6074,
      "æĦļèł¢çļĦ": 6075,
      "æīĩéĹ¨": 6076,
      "éĢĴç»Ļ": 6077,
      "åı²å¯Ĩæĸ¯": 6078,
      "åī§éĻ¢": 6079,
      "æĬ¢èµ°äºĨ": 6080,
      "éķ¿åĩ³ä¸Ĭ": 6081,
      "è¶ħçº§èĭ±éĽĦ": 6082,
      "æīĭçīµæīĭ": 6083,
      "¡èĽ": 6084,
      "±æ¡ĥ": 6085,
      "ä»ĸè¯·": 6086,
      "ä»ĸæľīäºĨä¸Ģä¸ªä¸»æĦı": 6087,
      "å¦Ĩ": 6088,
      "åĲĲ": 6089,
      "ä»ĸä»¬æĪĲä¸ºäºĨæľĭåıĭ": 6090,
      "åĴĮä¸ĢäºĽ": 6091,
      "åĴĮä¸İ": 6092,
      "èİīèİīä¹Ł": 6093,
      "èİīèİīä¸įåĸľæ¬¢": 6094,
      "èİīèİīçľĭåĪ°ä¸Ģä¸ª": 6095,
      "çľĭçĶµè§Ĩ": 6096,
      "æĿ¥å¸®å¿Ļ": 6097,
      "ä½Ĩçİ°åľ¨": 6098,
      "éĿŀå¸¸åĭĩæķ¢": 6099,
      "èĴĤå§ĨçľĭåĪ°äºĨ": 6100,
      "çī¡èĽ": 6101,
      "ä»ĸçļĦçĲĥ": 6102,
      "å½Ĵ": 6103,
      "æĬĬæīĢæľīçļĦ": 6104,
      "åĳĨ": 6105,
      "å½ĵæ±¤å§Ĩ": 6106,
      "çĤ«": 6107,
      "å¤ªéħ·äºĨ": 6108,
      "ä½Ĩæĺ¯å¥¹": 6109,
      "å±ī": 6110,
      "ç»ĵå©ļ": 6111,
      "åĵŃå£°": 6112,
      "çľĭçľĭéĩĮéĿ¢æľīä»Ģä¹Ī": 6113,
      "å¥¹æĥ³çŁ¥éģĵ": 6114,
      "ä¹ĭéĹ´": 6115,
      "èļĬåŃĲ": 6116,
      "æ¤°": 6117,
      "åĲīåĲī": 6118,
      "æ°¸è¿ľä¸įä¼ļå¿ĺè®°": 6119,
      "åı¯çĪ±çļĦ": 6120,
      "æ¹¿éĢı": 6121,
      "çº¦ç¿°å°¼": 6122,
      "çħ§é¡¾å®ĥ": 6123,
      "èĢĥè¯ķ": 6124,
      "è§īå¾Ĺå¾Īæľīè¶£": 6125,
      "éĩĳæŀª": 6126,
      "ä½łæĥ³åĴĮæĪĳä¸Ģèµ·": 6127,
      "çīĮåŃĲ": 6128,
      "æµĭéĩı": 6129,
      "åĵĪæ¬ł": 6130,
      "çİ¯é¡¾": 6131,
      "æ¨±æ¡ĥ": 6132,
      "å¤ªå¥½åĲĥäºĨ": 6133,
      "æĬ½å±ī": 6134,
      "æ¸¸ä¹Ĳåľº": 6135,
      "åĨ¬å¤©": 6136,
      "åĺ²ç¬ĳ": 6137,
      "åį°è±¡æ·±åĪ»": 6138,
      "çī¡èĽİ": 6139,
      "éĩĳæŀªé±¼": 6140,
      "èĤ²": 6141,
      "å¥¹å¾Īé«ĺåħ´èĥ½": 6142,
      "åħľ": 6143,
      "è¿Ī": 6144,
      "æĺ¥": 6145,
      "ä»ĸä»¬è¦ģåİ»": 6146,
      "æĪĳä¹Łæĥ³": 6147,
      "ä½łä¸įåºĶè¯¥": 6148,
      "ç»ĳ": 6149,
      "åİĭ": 6150,
      "æĥ³åĪ°": 6151,
      "æĬµ": 6152,
      "åĸľæ¬¢åĴĮ": 6153,
      "åı«é©¬åħĭæĸ¯": 6154,
      "å¥¹çļĦå°ı": 6155,
      "è¿ĩçļĦ": 6156,
      "åı¯ä»¥è®©": 6157,
      "å¹¶ä¸įçŁ¥éģĵ": 6158,
      "æĦŁåĪ°ä¼¤å¿ĥ": 6159,
      "æĦŁåĪ°æĬ±æŃī": 6160,
      "çľĭåĪ°äºĨä»ĸ": 6161,
      "éĹ®å¥¹çļĦå¦Īå¦Ī": 6162,
      "ä¼¤åı£": 6163,
      "å¤ªé«ĺåħ´": 6164,
      "å¨ĺ": 6165,
      "åĲ¬çĿĢ": 6166,
      "åħīèĬĴ": 6167,
      "æĽ´æľīè¶£": 6168,
      "æĬ±èµ·": 6169,
      "åĲĳæĹ¥": 6170,
      "çĥĪ": 6171,
      "çĨĬåħĪçĶŁ": 6172,
      "ä¿Ŀè¯ģ": 6173,
      "æľºåľº": 6174,
      "æ»ĳç¨": 6175,
      "æĭ¥æĬ±åľ¨ä¸Ģèµ·": 6176,
      "å¡Į": 6177,
      "å·²æĻļ": 6178,
      "çķĻä¸ĭæĿ¥": 6179,
      "èĳµ": 6180,
      "æŁ¥çľĭ": 6181,
      "æ£ĢæŁ¥ä¸Ģä¸ĭ": 6182,
      "å¥¹éĹ®å¦Īå¦Īæĺ¯åĲ¦åı¯ä»¥": 6183,
      "æºħæ°´": 6184,
      "è±ĨåŃĲ": 6185,
      "æµ·æ´ĭéĩĮ": 6186,
      "å´ĸ": 6187,
      "å¢¨æ°´": 6188,
      "æĤ¬å´ĸ": 6189,
      "åĲĳæĹ¥èĳµ": 6190,
      "æ»ĳç¨½": 6191,
      "Zi": 6192,
      "ir": 6193,
      "un": 6194,
      "çļĦéĹ¨": 6195,
      "åħ¸": 6196,
      "åľ¨æłĳæŀĹéĩĮ": 6197,
      "æĺĤ": 6198,
      "ä»ĸä»¬ä»İ": 6199,
      "ä»ĸä»¬æŃ£åľ¨": 6200,
      "ä¸Ģä¸ªåı«åģļ": 6201,
      "åĴĮçĮ«": 6202,
      "ä¸įè§ģ": 6203,
      "æĿ¥åĲĥ": 6204,
      "è¿Ļå¤´": 6205,
      "åĬ¿": 6206,
      "èĴĤå§ĨéĿŀå¸¸åĸľæ¬¢": 6207,
      "æĬĬæĪı": 6208,
      "è®©èİīèİī": 6209,
      "çĽ¾": 6210,
      "åĲĥçļĦ": 6211,
      "æ£ĭ": 6212,
      "çĶ¨è¿ĻäºĽ": 6213,
      "ä½Ĩæĺ¯ä»ĸ": 6214,
      "æ»´": 6215,
      "å¥½çļĦæľĭåıĭ": 6216,
      "å°±è¿Ļæł·": 6217,
      "ä¸Ģå¤©ç»ĵæĿŁæĹ¶": 6218,
      "æĶ¾è¿ĽäºĨ": 6219,
      "æĭ¿äºĨä¸Ģä¸ª": 6220,
      "åĳĬè¯īè¿ĩ": 6221,
      "å¥¹åĸľæ¬¢æķ´å¤©": 6222,
      "è´©": 6223,
      "çĥģ": 6224,
      "èĢģå¤´": 6225,
      "éĹªçĥģ": 6226,
      "æī¾åĪ°å®ĥ": 6227,
      "ç©ºéĹ´": 6228,
      "èį·": 6229,
      "èµ°äºĨè¿ĽæĿ¥": 6230,
      "æľīä¸Ģä¸ªå°ıçĶ·åŃ©åĲįåı«èĴĤå§Ĩ": 6231,
      "çķ¥": 6232,
      "æ»¡è¶³": 6233,
      "åĨ°çĲĥ": 6234,
      "éĽ¨åģľ": 6235,
      "ä»ĸåĸľæ¬¢æķ´å¤©": 6236,
      "æĪ´åľ¨": 6237,
      "é»ĳèī²": 6238,
      "ä¸įå°ıå¿ĥæīĵ": 6239,
      "æĹ©ä¸Ĭ": 6240,
      "æľīä»Ģä¹Īä¸ľè¥¿": 6241,
      "è¿Ļä¸ªæķħäºĭçļĦå¯ĵæĦıæĺ¯è¦ģ": 6242,
      "èŁĭèŁĢ": 6243,
      "éĹªäº®çļĦçŁ³å¤´": 6244,
      "è°ģèĥ½": 6245,
      "èģªæĺİçļĦçĮ«å¤´é¹°": 6246,
      "å®ĥéĿŀå¸¸æ¼Ĥäº®": 6247,
      "åĸĦèī¯çļĦå¥³å£«": 6248,
      "ä½łèĥ½å¸®æĪĳåĲĹ": 6249,
      "æľĿçĿĢ": 6250,
      "æµ´å®¤": 6251,
      "å¾ĹæĽ´å¿«": 6252,
      "ä¸įä¹ħä¹ĭåĲİ": 6253,
      "çľ¨çľ¼": 6254,
      "æ¼«æŃ¥": 6255,
      "éĴ»çŁ³": 6256,
      "çĺ¦": 6257,
      "å®ĩå®": 6258,
      "æīĳçģŃ": 6259,
      "å¥¹åĴĮ": 6260,
      "å¥¹éĿŀå¸¸ä¼¤å¿ĥ": 6261,
      "å¥¹åĽĽå¤Ħå¼łæľĽ": 6262,
      "ä»ĸä»¬å¸¦çĿĢ": 6263,
      "åĴķ": 6264,
      "å°ıæºª": 6265,
      "å¦Īå¦ĪåĽŀçŃĶ": 6266,
      "è¿ĻæĹ¶": 6267,
      "å¥½èµ·æĿ¥": 6268,
      "åİ»åĵªéĩĮ": 6269,
      "éĥ½åĸľæ¬¢": 6270,
      "åı¯ä»¥çİ©": 6271,
      "ç¬ĳå¾Ĺ": 6272,
      "æĦıè§ģ": 6273,
      "æłĳé¡¶": 6274,
      "è·ĳåĪ°äºĨ": 6275,
      "éĢĢ": 6276,
      "åĽłä¸ºå®ĥä»¬": 6277,
      "è¿ĻåıªèĻ«åŃĲ": 6278,
      "å¦Īå¦Īè¯´åı¯ä»¥": 6279,
      "çľŁæ¼Ĥäº®": 6280,
      "ä»ĸä»¬çļĦæľĭåıĭ": 6281,
      "èģĨ": 6282,
      "åĲĮæĥħ": 6283,
      "å®Ŀç®±": 6284,
      "çħ§èĢĢ": 6285,
      "æķĻå®¤": 6286,
      "æ±łå¡ĺè¾¹": 6287,
      "é¢ľèī²åĴĮ": 6288,
      "åĿļåĽº": 6289,
      "èº²èĹı": 6290,
      "è§īå¾Ĺå¾Īéļ¾è¿ĩ": 6291,
      "ac": 6292,
      "ä»ĸåĴĮ": 6293,
      "ä»ĸä»¬æķ´å¤©éĥ½åľ¨": 6294,
      "å¾ĪçĥŃ": 6295,
      "èİīèİīè¯ķåĽ¾": 6296,
      "ä¸įéĢĤåĲĪ": 6297,
      "ç±į": 6298,
      "éĿŀå¸¸èĩªè±ª": 6299,
      "æĪĳä»¬åİ»æī¾": 6300,
      "å¸®å¦Īå¦Ī": 6301,
      "èĴĤç±³æĺİçĻ½äºĨ": 6302,
      "äºĨä¸Ģè·¤": 6303,
      "çľĭåĪ°åľ°ä¸Ĭ": 6304,
      "çĶ¨æīĭ": 6305,
      "å¨ģ": 6306,
      "çĦ¶åĲİæĬĬ": 6307,
      "è·³è¿ĩ": 6308,
      "è·³è¿ĽäºĨ": 6309,
      "çĶ»ä¸Ģ": 6310,
      "åĲĳä»ĸä»¬": 6311,
      "æ¯Ľçº¿": 6312,
      "ç»ĵå®ŀ": 6313,
      "æ¯ıå¤©æĹ©æĻ¨": 6314,
      "æ»ĳåĢĴäºĨ": 6315,
      "ä¸ĬäºĨè½¦": 6316,
      "å®īåħ¨çļĦ": 6317,
      "éĤ£åıªèĿ´èĿ¶": 6318,
      "æŃĮåĶ±": 6319,
      "åĲ¬åĪ°è¿Ļä¸ª": 6320,
      "åıĳçİ°äºĨä¸Ģä¸ªå°ı": 6321,
      "ä½įç½®": 6322,
      "åıĳçİ°äºĨä¸ĢæĬĬ": 6323,
      "å»ºçŃĳ": 6324,
      "åĺ¶": 6325,
      "åĽĽåĳ¨": 6326,
      "ä¿ĿæĮģå®īåħ¨": 6327,
      "ä»ĸçļĦçİ©åħ·è½¦": 6328,
      "åĲīæĻ®": 6329,
      "åı¦ä¸Ģ": 6330,
      "çĶľçĤ¹": 6331,
      "çĶļèĩ³è¿ĺ": 6332,
      "ä¹Įäºĳ": 6333,
      "åĲĳå¦Īå¦Īè¦ģ": 6334,
      "åĴĮå®ĥä¸Ģèµ·çİ©": 6335,
      "éĺ¿å§¨": 6336,
      "æ±½è½¦åĴĮåį¡è½¦": 6337,
      "æī¶æīĭ": 6338,
      "æĭĲæĿĸ": 6339,
      "çĽ¾çīĮ": 6340,
      "ĠæīĢä»¥": 6341,
      "ä»ĸç»§ç»Ń": 6342,
      "åĴĮè·³è·ĥ": 6343,
      "æĪĳæ²¡æľī": 6344,
      "çľĭåİ»": 6345,
      "ä¸įå¤Ł": 6346,
      "åİ©": 6347,
      "åīįéĿ¢": 6348,
      "ä¸ºæĹ¶": 6349,
      "ä¸ĭåįĪ": 6350,
      "æī¾åĽŀ": 6351,
      "äºĨä¸ĢåĿĹ": 6352,
      "è¥¿çĵľ": 6353,
      "è®©å¥¹çļĦ": 6354,
      "è®©äºº": 6355,
      "åģļçļĦäºĭæĥħ": 6356,
      "æ¸¯": 6357,
      "åĦ¿åŃĲ": 6358,
      "é©¬åİ©": 6359,
      "æī¾åĪ°ä¸Ģæł¹": 6360,
      "èµ°äºĨåĩºæĿ¥": 6361,
      "å¡«": 6362,
      "åĶ±äºĨä¸Ģé¦ĸ": 6363,
      "æİ¨åĬ¨": 6364,
      "æķĳæĬ¤": 6365,
      "é¾Ļåį·": 6366,
      "ä¸ĬéĿ¢æľī": 6367,
      "æ¢¦è§ģ": 6368,
      "æĬ¤çħ§": 6369,
      "æĮīä¸ĭ": 6370,
      "æ¸¸æ³³æ±ł": 6371,
      "éĩįè¦ģçļĦæķĻè®Ń": 6372,
      "ä¸¾èµ·": 6373,
      "çĶ°åľ°": 6374,
      "åıĮæīĭ": 6375,
      "åĲĦç§įåĲĦ": 6376,
      "ä½łæĺ¯ä¸ªå¥½æľĭåıĭ": 6377,
      "æ¸´æľĽ": 6378,
      "å¤ľæĻļ": 6379,
      "æ±ªæ±ª": 6380,
      "çļĦèĵĿèī²": 6381,
      "å¯¹å¥¹æĿ¥è¯´": 6382,
      "éģĹæĨ": 6383,
      "éģĹæĨ¾": 6384,
      "Mi": 6385,
      "ĴæĮĩ": 6386,
      "çļĦæĿ¾é¼ł": 6387,
      "çļĦç¿ħèĨĢ": 6388,
      "ä»ĸéĿŀå¸¸å¼Ģå¿ĥ": 6389,
      "ä»ĸçľĭåĪ°äºĨä¸Ģä¸ª": 6390,
      "è¿°": 6391,
      "æĪĴæĮĩ": 6392,
      "åľ¨æ°´ä¸Ń": 6393,
      "ä»ĸä»¬æĥ³è¦ģ": 6394,
      "ä»ĸä»¬äºĴçĽ¸": 6395,
      "æĪĳçĪ±": 6396,
      "ä¸įå¹¸": 6397,
      "ä½ĨåıĪ": 6398,
      "å¼ĢçĿĢ": 6399,
      "å¼ĢéĹ¨": 6400,
      "èĴĤå§Ĩå¼Ģå§ĭ": 6401,
      "æľīä¸Ģä¸ªå¾Īå¤§çļĦ": 6402,
      "å¥³å·«": 6403,
      "çŁŃ": 6404,
      "å°ıå¥³åŃ©è¯´": 6405,
      "åĩºçİ°åľ¨": 6406,
      "å¼Ģå§ĭåıĺ": 6407,
      "çĶ¨çĪªåŃĲ": 6408,
      "æĪĲéķ¿": 6409,
      "å±ı": 6410,
      "æ²¡æľīæ³¨æĦıåĪ°": 6411,
      "èĭıåĸľæ¬¢": 6412,
      "çļĦèŃ¦": 6413,
      "æľīä¸Ģä¸ªå°ıå¥³åŃ©åı«éľ²è¥¿": 6414,
      "åĪĨå¼Ģ": 6415,
      "èĢģçĪ·çĪ·": 6416,
      "åİ»äºĨæµ·æ»©": 6417,
      "éŁ³æľº": 6418,
      "è¿Ļæĺ¯ä»ĸ": 6419,
      "æµ·è¾¹": 6420,
      "æĶ¶éŁ³æľº": 6421,
      "ä¹ĭå¤Ħ": 6422,
      "æĺİçĻ½æľīæĹ¶åĢĻ": 6423,
      "æĺ¯ä¸Ģä¸ªéĿŀå¸¸": 6424,
      "çİ©çİ©åħ·æĹ¶": 6425,
      "åŀ«": 6426,
      "åĴĮä½łä¸Ģèµ·çİ©": 6427,
      "åľ¨çİ©çĲĥ": 6428,
      "åĲ¸å¼ķ": 6429,
      "ä»¥åīįä»İæľªè§ģè¿ĩ": 6430,
      "é¡ºçĿĢ": 6431,
      "åħ®åħ®": 6432,
      "èĻļå¼±": 6433,
      "å§ĳå¨ĺ": 6434,
      "åĩłåĪĨéĴŁåĲİ": 6435,
      "é¥¥é¥¿": 6436,
      "å®ĩå®Ļ": 6437,
      "åĲīæĻ®è½¦": 6438,
      "æķĳæĬ¤è½¦": 6439,
      "é¾Ļåį·é£İ": 6440,
      "Ġä»İéĤ£å¤©èµ·": 6441,
      "å¥¹æīĵå¼Ģ": 6442,
      "å¥¹æĦŁè°¢": 6443,
      "å®¾": 6444,
      "ä»ĸä»¬æķ´å¤©": 6445,
      "ä¸Ģä¸ªçĶ·äºº": 6446,
      "åĴĮåħĶåŃĲ": 6447,
      "æĺ¯å¯¹çļĦ": 6448,
      "è¿Ļä¸Ģå¤©": 6449,
      "è¿Ļé¦ĸ": 6450,
      "å¿ĥéĩĮ": 6451,
      "éĥ½ç¬ĳäºĨ": 6452,
      "èī°": 6453,
      "å½ĵæĪĳä»¬": 6454,
      "çľĭåĪ°äºĨå¥¹": 6455,
      "çľĭåĪ°äºĨè¿Ļä¸ª": 6456,
      "åĬ¨ä½ľ": 6457,
      "æĮ¤": 6458,
      "è¿ĺç»ĻæĪĳ": 6459,
      "æīĭéķ¯": 6460,
      "çĶ»äºĨä¸Ģ": 6461,
      "æķ´é½Ĳ": 6462,
      "æ¢ħ": 6463,
      "æĻļå®ī": 6464,
      "åĥıä½ł": 6465,
      "æĶ¶åĪ°": 6466,
      "ç±³å¨ħè¯´": 6467,
      "æ´Ĺæīĭ": 6468,
      "çļ®èĤ¤": 6469,
      "æ®¿": 6470,
      "å¥¹éĹ®å¥¹çļĦå¦Īå¦Ī": 6471,
      "æĶ¶æĭ¾çİ©åħ·": 6472,
      "æ¶Īæģ¯": 6473,
      "ä¸Ģèµ·åİ»æķ£æŃ¥": 6474,
      "åĲµéĹ¹": 6475,
      "åĬłåħ¥ä»ĸä»¬": 6476,
      "æĪ´çĿĢä¸Ģé¡¶": 6477,
      "çļĦèĥ³èĨĬ": 6478,
      "ä½łçľŁå¥½": 6479,
      "ä¸įä¹ħåĲİ": 6480,
      "æĻ®éĢļçļĦ": 6481,
      "çļĦè´Ŀ": 6482,
      "æ©¡çļ®æĵ¦": 6483,
      "æ¢³åŃĲ": 6484,
      "åĢ¼å¾Ĺ": 6485,
      "ä¸Ģæķ´å¤©éĥ½åľ¨çİ©": 6486,
      "å¤ªéĺ³å¼Ģå§ĭèĲ½å±±æĹ¶": 6487,
      "ä¼Łå¤§çļĦ": 6488,
      "ä¸ºæĹ¶å·²æĻļ": 6489,
      "Duc": 6490,
      "¯é¹¿": 6491,
      "Ġæ±¤å§Ĩ": 6492,
      "ä¸ģ": 6493,
      "ä»ĸæŃ£åľ¨": 6494,
      "ä»ĸåĲ¬åĪ°äºĨ": 6495,
      "å¥¹éĿŀå¸¸å¼Ģå¿ĥ": 6496,
      "å¥¹æį¡èµ·": 6497,
      "å¥¹æľīäºĨä¸Ģä¸ªä¸»æĦı": 6498,
      "ä¸ªåŃĲ": 6499,
      "åľ¨éĩĮéĿ¢": 6500,
      "åľ¨éĽ¨": 6501,
      "åľ¨æ´¾å¯¹ä¸Ĭ": 6502,
      "åľ¨åĽŀå®¶çļĦè·¯ä¸Ĭ": 6503,
      "ä»ĸä»¬åĿĲåľ¨": 6504,
      "èİīèİīç¡®ä¿Ŀ": 6505,
      "æĪĳä¸įèĥ½": 6506,
      "è¯´äºĨ": 6507,
      "ç»ĩ": 6508,
      "ä½Ĩå¦Īå¦Ī": 6509,
      "å¾Ĺé«ĺé«ĺçļĦ": 6510,
      "èĴĤå§Ĩæĥ³å¸®åĬ©": 6511,
      "æľīä¸Ģä¸ªå¹´è½»": 6512,
      "åıĳåĬ¨": 6513,
      "å®¶ä¼Ļ": 6514,
      "èĴĤç±³å¾Īå®³æĢķ": 6515,
      "èĴĤç±³åĴĮä»ĸçļĦæľĭåıĭä»¬": 6516,
      "å¼Ģå§ĭè·³èĪŀ": 6517,
      "åĲĥä¸Ģä¸ª": 6518,
      "åıĳçİ°åľ°ä¸Ĭ": 6519,
      "é©¯é¹¿": 6520,
      "æİ§": 6521,
      "æĮ£": 6522,
      "æŀľåĨ»": 6523,
      "æľīä¸Ģä¸ªå°ıå¥³åŃ©åı«èī¾ç±³": 6524,
      "æĸ¹å½¢": 6525,
      "ä¸ĢäºĽé£Łçī©": 6526,
      "æīĢæľīä¸ľè¥¿": 6527,
      "å®ĮäºĨ": 6528,
      "é£İæĻ¯": 6529,
      "æİ¥çĲĥ": 6530,
      "å¯»æī¾é£Łçī©": 6531,
      "å½ĵä»ĸåĪ°è¾¾": 6532,
      "èĦıåħ®åħ®": 6533,
      "æľīè¶£çļĦæ¸¸æĪı": 6534,
      "ä½ĵèĤ²": 6535,
      "ç®Ģåįķ": 6536,
      "åĿļå¼º": 6537,
      "æ¥ļ": 6538,
      "èĬĤæĹ¥": 6539,
      "éĹªéĹªåıĳåħīçļĦçŁ³å¤´": 6540,
      "çĥŁçģ°": 6541,
      "å®Įç¾İçļĦ": 6542,
      "éľĩæĥĬ": 6543,
      "åı¼çĿĢ": 6544,
      "æĭ¯æķĳ": 6545,
      "çĮİäºº": 6546,
      "éĽªåľ°éĩĮçİ©èĢį": 6547,
      "è½¨éģĵ": 6548,
      "æľīä¸Ģä¸ªçĶ·åŃ©åı«": 6549,
      "æ¸¯åı£": 6550,
      "Ducky": 6551,
      "èĺĳèıĩ": 6552,
      "Ġä»ĸ": 6553,
      "åľ¨æłĳä¸ĭ": 6554,
      "ä»ĸä»¬æĦıè¯ĨåĪ°": 6555,
      "åĴĮå¼Ģå¿ĥ": 6556,
      "èİīèİīåıĪ": 6557,
      "èİīèİīæĥ³å¸®åĬ©": 6558,
      "æĥ°": 6559,
      "åĸľæĤ¦": 6560,
      "å®¶çļĦ": 6561,
      "èµ°åİ»": 6562,
      "è°ľ": 6563,
      "åĩºåıĳ": 6564,
      "ä¸Ģåıªåıĭå¥½çļĦ": 6565,
      "éľį": 6566,
      "æĸ°çŁ¥è¯Ĩ": 6567,
      "ä½Ĩæĺ¯é¦ĸåħĪ": 6568,
      "ç©·": 6569,
      "å¾Ĺå¾ĪæĦīå¿«": 6570,
      "æ¯ĽçĲĥ": 6571,
      "æįı": 6572,
      "æĦŁè§īå¾Īå¥½": 6573,
      "ä½Ĩä»ĸä»įçĦ¶": 6574,
      "å°½å¤´": 6575,
      "è®©æĪĳä»¬æĬĬ": 6576,
      "æĳ¸ä¸Ģä¸ĭ": 6577,
      "çĿ¡è§īäºĨ": 6578,
      "ä¸¤åıª": 6579,
      "åį³å°Ĩ": 6580,
      "æĦŁåĪ°éļ¾è¿ĩåĴĮ": 6581,
      "éĶħéĩĮ": 6582,
      "åĵĪåĪ©": 6583,
      "æ¨¡": 6584,
      "æĿĤå¿Ĺ": 6585,
      "æĩĴæĥ°": 6586,
      "çļĦè¢ĭåŃĲ": 6587,
      "è§ĦåĪĻ": 6588,
      "åĢ¾åĲ¬": 6589,
      "Ġå¥¹çļĦå¦Īå¦Īè¯´": 6590,
      "Ŀç¦»": 6591,
      "ä¸ĵ": 6592,
      "ä¸Ģæŀļ": 6593,
      "å¥¹è§īå¾Ĺèĩªå·±": 6594,
      "åľ£": 6595,
      "æĺ¯æĪĳçļĦ": 6596,
      "å¾Īæĭħå¿ĥ": 6597,
      "åĽ±": 6598,
      "å°ıå§Ĳ": 6599,
      "æĪĳæī¾ä¸įåĪ°": 6600,
      "è¿Ļæľµ": 6601,
      "ç»½": 6602,
      "è·Ŀç¦»": 6603,
      "æľīä¸Ģä¸ªåı«åģļ": 6604,
      "åıĳæ°´": 6605,
      "ç»Ļèĩªå·±": 6606,
      "æ³½": 6607,
      "æĦŁåĪ°åĽ°æĥĳ": 6608,
      "è¶¾": 6609,
      "é¼»": 6610,
      "æ¼Ĥäº®äºĨ": 6611,
      "æī¾åĪ°åĽŀå®¶çļĦè·¯": 6612,
      "éªĮ": 6613,
      "åıĹåĪ°": 6614,
      "ä¸Ģä¸ªå¤§ç®±åŃĲ": 6615,
      "åºĹä¸»": 6616,
      "çļĦçİ©åħ·æ±½è½¦": 6617,
      "ä¹ĭæĹħ": 6618,
      "åħĪéĹ®": 6619,
      "æľįè£ħ": 6620,
      "çº¸åĴĮ": 6621,
      "ä¸įè¦ģå®³æĢķ": 6622,
      "æ´Ĺåıĳæ°´": 6623,
      "çľĭåĪ°ä¸Ģåıªå°ıé¸Ł": 6624,
      "è¿·å®«": 6625,
      "ç±³äºļè¯´": 6626,
      "è½¬åľĪ": 6627,
      "æİ¢ç´¢ä¸ĸçķĮ": 6628,
      "æ¸ħæ¥ļ": 6629,
      "çļĦå®¶åºŃ": 6630,
      "å¥ĩæĢªçļĦå£°éŁ³": 6631,
      "çģ°å°ĺ": 6632,
      "çĥŁåĽ±": 6633,
      "ä½łä¸ºä»Ģä¹Īéļ¾è¿ĩ": 6634,
      "è¯įåħ¸": 6635,
      "èĪĶäºĨ": 6636,
      "èµ°çĿĢæĹ¶": 6637,
      "ä½ıåľ¨ä¸Ģä¸ªå¤§æĪ¿åŃĲéĩĮ": 6638,
      "åľ°æ¯¯ä¸Ĭ": 6639,
      "çİ©å®Įä¹ĭåĲİ": 6640,
      "å®«æ®¿": 6641,
      "æī®æ¼Ķ": 6642,
      "æ¤°èıľ": 6643,
      "åıĳåĬ¨æľº": 6644,
      "çļĦè½¦": 6645,
      "çļĦèĬ±": 6646,
      "çļĦç¾İä¸½": 6647,
      "ä»ĸåİ»": 6648,
      "ä»ĸæī¾åĪ°äºĨ": 6649,
      "ä»ĸä¸įåĨį": 6650,
      "å¥¹ç¬ĳçĿĢè¯´": 6651,
      "åĪ°æĿ¥": 6652,
      "ä»ĸä»¬å¯¹": 6653,
      "æĺ¯ä¸Ģç§į": 6654,
      "å°ıå§ĳå¨ĺ": 6655,
      "ä½łè¦ģ": 6656,
      "ä¸Ģèµ·è·³èĪŀ": 6657,
      "é«ĺå¤Ħ": 6658,
      "èĴĤå§Ĩå¾Īå®³æĢķ": 6659,
      "ä»ĸçļĦæīĭ": 6660,
      "åıĳåŀĭ": 6661,
      "æĪĳä»¬åľ¨": 6662,
      "æ±¤å§ĨéĹ®": 6663,
      "æ±¤å§Ĩå¾Īé«ĺåħ´": 6664,
      "ä¹Łè¦ģ": 6665,
      "åĲįåı«é©¬åħĭæĸ¯": 6666,
      "åĲįåı«éľ²è¥¿": 6667,
      "çĤīåŃĲ": 6668,
      "æĪĲä¸Ģ": 6669,
      "åĢ¦": 6670,
      "åıĳçİ°èĩªå·±": 6671,
      "çĦ¶åĲİå¼Ģå§ĭ": 6672,
      "æıĲçĲ´": 6673,
      "å°±ä¸įä¼ļ": 6674,
      "ä¸»åĬ¨": 6675,
      "æĢ»æĺ¯åľ¨": 6676,
      "æŃ£æĸ¹å½¢": 6677,
      "ä»ĸæĥ³èµ·äºĨ": 6678,
      "ç«¿": 6679,
      "åĽŀåĪ°åħ¬åĽŃ": 6680,
      "åĨ°ç®±éĩĮ": 6681,
      "ç½ļ": 6682,
      "åĸĦèī¯çļĦäºº": 6683,
      "ä¸įè¦ģæĭħå¿ĥ": 6684,
      "æ£®æŀĹéĩĮçļĦ": 6685,
      "æĪ´ä¸ĬäºĨ": 6686,
      "åĨ·äºĨ": 6687,
      "æĵ¦å¹²åĩĢ": 6688,
      "éĺ³åħīæĺİåªļçļĦæĹ¥åŃĲéĩĮ": 6689,
      "åľĨå½¢": 6690,
      "å¥ĩæĢªçļĦä¸ľè¥¿": 6691,
      "ç¬ĳäºĨç¬ĳè¯´": 6692,
      "çģ¯åħī": 6693,
      "åİ»çľĭåĮ»çĶŁ": 6694,
      "è®²è¿°": 6695,
      "çĶ±äºİ": 6696,
      "æĲħæĭĮåĻ¨": 6697,
      "åĴĮå®¶äººä¸Ģèµ·": 6698,
      "æ´Ĵåľ¨äºĨ": 6699,
      "åį«çĶŁ": 6700,
      "ä¼¸åĩºæīĭ": 6701,
      "æ´Ĺç¢Ĺæľº": 6702,
      "å¤ªéļ¾äºĨ": 6703,
      "æ©±æŁľ": 6704,
      "å¿½çķ¥": 6705,
      "çĩķéº¦": 6706,
      "çĥŁçģ°ç¼¸": 6707,
      "ä»Ĭ": 6708,
      "ä»ĸä¸º": 6709,
      "ä»ĸçľĭåĪ°ä¸Ģæ£µ": 6710,
      "å¥¹ç»§ç»Ń": 6711,
      "ä»ĸä»¬çİ©äºĨ": 6712,
      "å¦Īå¦Īåľ¨": 6713,
      "æĥ³èµ·äºĨ": 6714,
      "åİ»éĤ£éĩĮ": 6715,
      "èĴĤå§ĨæĺİçĻ½äºĨ": 6716,
      "æĪĳä»¬çİ°åľ¨": 6717,
      "æĪĳä»¬èµ°åĲ§": 6718,
      "æ±¤å§ĨçļĦå¦Īå¦Ī": 6719,
      "è·ĳåĽŀäºĨ": 6720,
      "åĿ¦": 6721,
      "åĲĥèĽĭç³ķ": 6722,
      "åĲĥæİīäºĨ": 6723,
      "æ°´éĿ¢": 6724,
      "å®ĥä»¬ä¸Ģèµ·": 6725,
      "å¥¹åĸľæ¬¢çİ©çİ©åħ·åĴĮ": 6726,
      "è¡ĮåĬ¨": 6727,
      "é¥®": 6728,
      "åº¦åģĩ": 6729,
      "æ¯ıå¤©æĻļä¸Ĭ": 6730,
      "éľ²è¥¿è¯´": 6731,
      "ä¹¦ç±į": 6732,
      "å½©ç¬Ķ": 6733,
      "çľĭåĪ°ä¸Ģè¾Ĩ": 6734,
      "çľ¼æ³ª": 6735,
      "çľĭåĪ°äºĨä¸Ģè¾Ĩ": 6736,
      "åĨľå¤«": 6737,
      "åĲĵè·ĳäºĨ": 6738,
      "éĩİçĶŁ": 6739,
      "æīĵå¼ĢäºĨéĹ¨": 6740,
      "çļĦèĥ¡èĲĿåįľ": 6741,
      "åĲİéĻ¢éĩĮ": 6742,
      "æ²¿çĿĢè¡Ĺéģĵ": 6743,
      "æ½ĺ": 6744,
      "çĥ§çĥ¤": 6745,
      "éĶĭåĪ©çļĦ": 6746,
      "ä»·åĢ¼": 6747,
      "çŁ¿çī©": 6748,
      "çľĭåĪ°äºĨä¸Ģæ£µå¤§æłĳ": 6749,
      "çļĦè´Ŀå£³": 6750,
      "±ç¿Ķ": 6751,
      "ä¸Ģå¼Ģå§ĭ": 6752,
      "äºĨæĪĳ": 6753,
      "åıł": 6754,
      "åĪ®": 6755,
      "å¥¹æľī": 6756,
      "å¥¹åľ¨åħ¬åĽŃéĩĮ": 6757,
      "åľ¨æĪ¿éĹ´éĩĮ": 6758,
      "ä»ĸä»¬æĭ¥æĬ±äºĨ": 6759,
      "å¾Īçī¹åĪ«": 6760,
      "ä¸įæĦ¿æĦı": 6761,
      "æĭĨ": 6762,
      "ä»¥éĺ²": 6763,
      "èĴĤå§Ĩåĸľæ¬¢åľ¨": 6764,
      "ç¬¦": 6765,
      "ä¹Łå¾Īå®³æĢķ": 6766,
      "åį¢": 6767,
      "å¼Ģå§ĭæĦŁåĪ°": 6768,
      "å¼Ģå§ĭè¯´è¯ĿäºĨ": 6769,
      "çľĭåĪ°äºĨåıĳçĶŁçļĦäºĭæĥħ": 6770,
      "åģļäºĽ": 6771,
      "æ´²": 6772,
      "åĲĥæĻļé¥Ń": 6773,
      "èĬ¬": 6774,
      "éĢĽ": 6775,
      "çĦ¶åĲİåĽŀå®¶äºĨ": 6776,
      "å¸¦ä¸Ĭ": 6777,
      "è¿ĽæĿ¥äºĨ": 6778,
      "èĪŁ": 6779,
      "å®ĥä»¬çļĦ": 6780,
      "éķ¿å¾Ĺ": 6781,
      "åĪ©å¥¥": 6782,
      "ç¿±ç¿Ķ": 6783,
      "é±¼åĦ¿": 6784,
      "ä¿ĿçķĻ": 6785,
      "ä»ĸä»¬éĥ½æĥ³": 6786,
      "æŁ´": 6787,
      "æľ¨èĪŁ": 6788,
      "çľĭçľĭåĲ§": 6789,
      "èº«åĲİ": 6790,
      "çŃīåĪ°": 6791,
      "çł¸": 6792,
      "æķĻä»ĸ": 6793,
      "åıĳçİ°äºĨä¸ĢæĿ¡": 6794,
      "æ´Ĺå®Į": 6795,
      "çĽ´åĪ°å®ĥ": 6796,
      "çĭ¬æľ¨èĪŁ": 6797,
      "æķ°æķ°": 6798,
      "ä¼¤å®³åĪ°": 6799,
      "éĢģåĪ°": 6800,
      "æ°´æŀľåĴĮ": 6801,
      "åĲĥå®ĮäºĨ": 6802,
      "ä¹Ķä¼Ĭ": 6803,
      "ç¿»äºĨ": 6804,
      "çĭ¬èĩªä¸Ģäºº": 6805,
      "åħ±äº«": 6806,
      "çļĦèģªæĺİ": 6807,
      "æī¶æīĭæ¤ħ": 6808,
      "Molly": 6809,
      "ä¸ĢåĲį": 6810,
      "ä»ĸå¾Īä¼¤å¿ĥ": 6811,
      "æĿ¥åĽŀ": 6812,
      "ä½łè¯´å¾Ĺå¯¹": 6813,
      "éģ®": 6814,
      "è¦ģæĽ´åĬłå°ıå¿ĥ": 6815,
      "å®¶åħ·": 6816,
      "èĴĤç±³ä¸įæĥ³": 6817,
      "äºĨä¸Ģæł¹": 6818,
      "è¥¿è£ħ": 6819,
      "èī²å½©": 6820,
      "è¿Ļä¸ªç®±åŃĲ": 6821,
      "ä¼¤åĪ°äºĨ": 6822,
      "åıĪä¸Ģæ¬¡": 6823,
      "ä½Ĩæĺ¯èĴĤå§Ĩ": 6824,
      "è·³åĩºæĿ¥": 6825,
      "éĺĶ": 6826,
      "æĶ¾è¿Ľåİ»": 6827,
      "æ¸¸åĪ°": 6828,
      "æīĢä»¥å®ĥ": 6829,
      "è¢į": 6830,
      "å±±ä¸Ĭ": 6831,
      "å®īåħ¨åıĪ": 6832,
      "çħİ": 6833,
      "æ¸¸æĪıåĲ§": 6834,
      "è¿ĩæĿ¥å¸®å¿Ļ": 6835,
      "å¸¦çĿĢå¥¹çļĦ": 6836,
      "ä»ĸä»¬ä¸Ģèµ·åľ¨": 6837,
      "æĺŁçĲĥ": 6838,
      "èĲ¨æĭīåĴĮæ±¤å§Ĩ": 6839,
      "åķĬè·³": 6840,
      "ç»Ļå¥¹å¦Īå¦Ī": 6841,
      "å¤ªéĺ³éķľ": 6842,
      "è¯¥æĢİä¹Īåģļ": 6843,
      "é¢ľèī²çļĦ": 6844,
      "åĴĮæľĭåıĭä»¬çİ©èĢį": 6845,
      "ä½ĵè´´": 6846,
      "è¢ĭé¼ł": 6847,
      "çĳļ": 6848,
      "å¼¹è·³": 6849,
      "è§ģè¿ĩçļĦæľĢ": 6850,
      "éĨĴæĿ¥åĲİ": 6851,
      "åĮĸå¦Ĩ": 6852,
      "é¼ĵæİĮæ¬¢åĳ¼": 6853,
      "ä¸Ģåľºæ¯ĶèµĽ": 6854,
      "å®¢åİħéĩĮ": 6855,
      "éĻ·åħ¥": 6856,
      "çļĦèĤļåŃĲ": 6857,
      "å¯¹ä»ĸæĿ¥è¯´": 6858,
      "çıĬçĳļ": 6859,
      "ä»ĭæĦı": 6860,
      "èģĨåĲ¬": 6861,
      "¼è¿ª": 6862,
      "Ġå°ı": 6863,
      "ä¸¹": 6864,
      "çļĦèĭ¹æŀľ": 6865,
      "ä»ĸæľī": 6866,
      "äºĨå¾Īéķ¿æĹ¶éĹ´": 6867,
      "ä»ĸä»¬åľ¨åħ¬åĽŃ": 6868,
      "ä»ĸä»¬çİ©å¾ĹéĿŀå¸¸å¼Ģå¿ĥ": 6869,
      "çİ©åĲ§": 6870,
      "çİ©èµ·äºĨ": 6871,
      "åĴĮä»ĸä»¬çļĦ": 6872,
      "å°ıå°ıçļĦ": 6873,
      "æĪĳè¿ĺ": 6874,
      "åĸĻ": 6875,
      "è¿ĻæĶ¯": 6876,
      "ä½Ĩä¸ºæĹ¶å·²æĻļ": 6877,
      "ä¸Ģèµ·åİ»äºĨ": 6878,
      "æ¯ģ": 6879,
      "åĽŀå¿Ĩ": 6880,
      "éĥ½åı¯ä»¥": 6881,
      "ç»Ļä»ĸçļĦæľĭåıĭ": 6882,
      "ç»Ļä»ĸçļĦæľĭåıĭä»¬": 6883,
      "èĴĤç±³éĹ®": 6884,
      "å¹¶æĦŁè°¢": 6885,
      "å¹¶æĬĬå®ĥä»¬": 6886,
      "æ±¤å§ĨéĿŀå¸¸é«ĺåħ´": 6887,
      "å¯¹æĪĳ": 6888,
      "éĻ¶": 6889,
      "ä»Ģä¹Īä¹Ł": 6890,
      "æĸ°çļĦä¸ľè¥¿": 6891,
      "è¯ķçĿĢ": 6892,
      "å¸¦ä½ł": 6893,
      "æĽ¼è¿ª": 6894,
      "æĻ´": 6895,
      "æµ®": 6896,
      "æĭīæī¯": 6897,
      "åķ¾": 6898,
      "åĪĨäº«å¥¹çļĦ": 6899,
      "ä¿Ŀæļĸ": 6900,
      "åħ¨åĬĽ": 6901,
      "åı£åĳ³": 6902,
      "çĻ»": 6903,
      "åĬłæ²¹": 6904,
      "å¼ĦåĿı": 6905,
      "å°½éĩı": 6906,
      "åķĨåºĹæĹ¶": 6907,
      "å¥¹çļĦæľĭåıĭèĴĤç±³": 6908,
      "çĹķ": 6909,
      "çĥŃçĪ±": 6910,
      "è¸ª": 6911,
      "æįīå¼Ħ": 6912,
      "éŀŃåŃĲ": 6913,
      "éĽ·å£°": 6914,
      "ä¼¤å®³ä½ł": 6915,
      "è§£éĩĬéģĵ": 6916,
      "åĲįåŃĹåı«": 6917,
      "åıĺæĪĲäºĨä¸Ģ": 6918,
      "åĲĦèĩª": 6919,
      "ä»ĸäººåĪĨäº«": 6920,
      "åĨ²æµª": 6921,
      "é»ĳæļĹçļĦ": 6922,
      "å¸ĥæľĹåħĪçĶŁ": 6923,
      "æ©Ļèī²çļĦ": 6924,
      "æĺ¯æĹ¶åĢĻåĽŀå®¶äºĨ": 6925,
      "å¤§åĸĬå¤§åı«": 6926,
      "è§¦æĳ¸": 6927,
      "ä¸Ģå®ļè¦ģ": 6928,
      "æ²Ļæ»©ä¸Ĭ": 6929,
      "©ç½ļ": 6930,
      "ĨĿçĽĸ": 6931,
      "çļĦæĥħåĨµ": 6932,
      "ä»ĸè®©": 6933,
      "ä»ĸè§īå¾Ĺèĩªå·±": 6934,
      "å¥¹ç¬ĳäºĨ": 6935,
      "çİ©çļĦ": 6936,
      "æĺ¯æĪĳ": 6937,
      "ä¸įå¯¹": 6938,
      "æĥ©ç½ļ": 6939,
      "æ¬¾": 6940,
      "ä½ĨèĴĤå§Ĩ": 6941,
      "åİ»æĬĵ": 6942,
      "é¸µ": 6943,
      "åĽŀå¤´": 6944,
      "å¹¶ä¸º": 6945,
      "å£¤": 6946,
      "çĦ¶åĲİç»§ç»Ń": 6947,
      "æĻĴ": 6948,
      "åĳĬè¯īèİīèİī": 6949,
      "çļĦèĨĿçĽĸ": 6950,
      "æĽ´éĩįè¦ģ": 6951,
      "äºİæĺ¯ä»ĸä»¬å¼Ģå§ĭ": 6952,
      "å¿«ä¹ĲåĴĮ": 6953,
      "æĪĳçļĦè½¦": 6954,
      "æĪĲä¸ºä½łçļĦæľĭåıĭ": 6955,
      "æģ¼": 6956,
      "ç¤ģ": 6957,
      "ä¸įæĥ³åĨį": 6958,
      "æĹłå®³": 6959,
      "æļĤ": 6960,
      "è¿ľäºĨ": 6961,
      "è®°ä½ıäºĨ": 6962,
      "éĩĮéĿ¢æľīä¸Ģä¸ª": 6963,
      "èĹıèº«": 6964,
      "åĲ¬åĪ°ä¸Ģå£°å·¨åĵį": 6965,
      "åķĬè·ĳ": 6966,
      "æ±¤å§ĨåĴĮé©¬åħĭæĸ¯": 6967,
      "çº¢èī²çļĦå¤§": 6968,
      "åıĳåĩºåĵįäº®çļĦ": 6969,
      "åľŁå£¤": 6970,
      "å¦ĤæŃ¤ä¹ĭ": 6971,
      "å¥ĩæĢªçļĦ": 6972,
      "èŃ¦è§ī": 6973,
      "èİ«èİ«": 6974,
      "çĸ¼çĹĽ": 6975,
      "ä»ĸä»¬çľĭåĪ°äºĨå¾Īå¤ļ": 6976,
      "çĥŁéĽ¾": 6977,
      "åĲİéĻ¢éĩĮçİ©èĢį": 6978,
      "èľĺèĽĽç½ĳ": 6979,
      "ç»ĵäº¤æĸ°æľĭåıĭ": 6980,
      "æŃ£ç¡®çļĦäºĭæĥħ": 6981,
      "èĸĦèį·": 6982,
      "åĲ¬ä»İäºĨå¦Īå¦ĪçļĦè¯Ŀ": 6983,
      "èĢ¸èĤ©": 6984,
      "éħĴåºĹ": 6985,
      "äºĨä¸Ģå¤§åı£": 6986,
      "ä¸įå¹¸çļĦæĺ¯": 6987,
      "Ġå°ıé¸Ł": 6988,
      "ä¸Ģæľ¬ä¹¦": 6989,
      "ä»ĸæĦŁè°¢": 6990,
      "å¥¹å¸¦": 6991,
      "ä»ĸä»¬ä¸º": 6992,
      "ä¸Ģä¸ªçĲĥ": 6993,
      "åĴĮå°ıå¥³åŃ©": 6994,
      "èİīèİīåĸľæ¬¢åľ¨": 6995,
      "å°ıåĿĹ": 6996,
      "ä¹ĸ": 6997,
      "éĿŀå¸¸åı¯çĪ±": 6998,
      "åľ°éĹ®": 6999,
      "å·®": 7000,
      "æľīä¸Ģä¸ªæľĭåıĭ": 7001,
      "æķŀ": 7002,
      "éĥ½è¦ģ": 7003,
      "ç»Ļä»ĸçļĦ": 7004,
      "èµ°è¿ĩ": 7005,
      "å¼Ģå§ĭå¯»æī¾": 7006,
      "çĽĨ": 7007,
      "çľĭåĪ°äºĨä»ĸçļĦæľĭåıĭ": 7008,
      "è¿Ļä¸ªå°ı": 7009,
      "åĲĥäºĨä¸ĢäºĽ": 7010,
      "åıĳçİ°äºĨ": 7011,
      "èĬ±æ¤°èıľ": 7012,
      "å¸¦æĿ¥äºĨ": 7013,
      "äº®äºĨèµ·æĿ¥": 7014,
      "çļĦèļ": 7015,
      "èĦ¾æ°Ķ": 7016,
      "æĹ¥åİĨ": 7017,
      "åĿıäºº": 7018,
      "ä¿®è¡¥": 7019,
      "æĵį": 7020,
      "çľĭåĪ°ä¸Ģä¸ªå°ıå¥³åŃ©": 7021,
      "ç²īæľ«": 7022,
      "å¹²åĩĢçļĦ": 7023,
      "æľīä¸Ģä¸ªå¤§å¤§çļĦ": 7024,
      "æĳĺäºĨä¸ĢäºĽ": 7025,
      "åıĳåĩºå£°éŁ³": 7026,
      "éªĳçĿĢ": 7027,
      "ä½Ĩæ²¡æľīäºº": 7028,
      "åĴĮä»ĸå¦Īå¦Ī": 7029,
      "æĭ¥æľīå®ĥ": 7030,
      "æłĳæľ¨åĴĮ": 7031,
      "å±ķç¤ºäºĨå¦Ĥä½ķ": 7032,
      "å®³ç¾ŀäºĨ": 7033,
      "åŃ¦åĪ°äºĨä¸Ģä¸ªéĩįè¦ģçļĦæķĻè®Ń": 7034,
      "è¡¨çİ°å¾Ĺ": 7035,
      "å¿«ä¹Ĳåľ°çİ©èĢį": 7036,
      "åı¤èĢģçļĦ": 7037,
      "åº§ä½įä¸Ĭ": 7038,
      "æģ¢å¤įäºĨ": 7039,
      "åħ¶ä¸Ńä¸Ģä¸ª": 7040,
      "é£ŀå¾Ĺé«ĺé«ĺçļĦ": 7041,
      "èĢĥèĻĳäºĨä¸Ģä¸ĭ": 7042,
      "è¶³å¤ŁçļĦéĴ±": 7043,
      "å±ıå¹ķ": 7044,
      "çıĬçĳļç¤ģ": 7045,
      "éĻ¶åľŁ": 7046,
      "é¸µé¸Ł": 7047,
      "ä»ĸåıĳçİ°äºĨä¸Ģä¸ª": 7048,
      "å¥¹æĬĬå®ĥ": 7049,
      "å¥¹åĴĮå¥¹çļĦå¦Īå¦Ī": 7050,
      "å¥¹æ³¨æĦıåĪ°": 7051,
      "åĴĮåĸĦèī¯": 7052,
      "ä¸įä»ħ": 7053,
      "å®ĥä¸įæĺ¯": 7054,
      "å¦Īå¦Īç»Ļå¥¹": 7055,
      "è¿Ļå¯¹": 7056,
      "è¿ĻæĦıåĳ³çĿĢ": 7057,
      "ä¼į": 7058,
      "ç±³é¥Ń": 7059,
      "åİ»çľĭçľĭ": 7060,
      "åİ»ä¸ĬåŃ¦": 7061,
      "ä¸Ģèµ·åĶ±æŃĮ": 7062,
      "ä»ĸçļĦæĪ¿éĹ´": 7063,
      "éĥ½å¾Ī": 7064,
      "æī¾ä¹ĲåŃĲ": 7065,
      "æŃ¦": 7066,
      "èĴĤç±³è§īå¾Ĺ": 7067,
      "æ³ŀ": 7068,
      "å°ıå¥³åŃ©éĿŀå¸¸é«ĺåħ´": 7069,
      "ä¸Ģèµ·çİ©æ¸¸æĪı": 7070,
      "æıĴ": 7071,
      "æľ¬åĴĮ": 7072,
      "ä½Ĩæĺ¯å¥¹çļĦå¦Īå¦Īè¯´": 7073,
      "å¸¦æľī": 7074,
      "æĭ¿ç»Ļå¦Īå¦Īçľĭ": 7075,
      "çĶ»ç¬Ķ": 7076,
      "èĲ¨å§ĨçļĦ": 7077,
      "è¯ķåĽ¾æĬĵä½ıå®ĥ": 7078,
      "å¥¹åľ¨èĬ±åĽŃéĩĮ": 7079,
      "çĪ¬ä¸ĭæĿ¥": 7080,
      "èģĭ": 7081,
      "å±±æ´ŀ": 7082,
      "åį¡å°Ķ": 7083,
      "æĪĳä»¬åı¯ä»¥çĶ¨": 7084,
      "åłµ": 7085,
      "åĻ©": 7086,
      "ç¦»å¼ĢæĹ¶": 7087,
      "åİ»æī¾ä»ĸçļĦæľĭåıĭ": 7088,
      "è·³èĪŀåĴĮ": 7089,
      "ä¿ĿæĮģå¹³è¡¡": 7090,
      "ä»ĸä»¬åĸľæ¬¢åľ¨åħ¬åĽŃéĩĮçİ©": 7091,
      "è·ŁçĿĢå¥¹": 7092,
      "ä¸ĢåĿĹå¤§çŁ³å¤´": 7093,
      "æ³¥æ³ŀ": 7094,
      "éĺŁä¼į": 7095,
      "ä»ĸä»¬çİ©äºĨä¸Ģæķ´å¤©": 7096,
      "å¹¸è¿ĲçļĦæĺ¯": 7097,
      "æºħèµ·": 7098,
      "ä¸Ģåı£æ°Ķ": 7099,
      "åĸµåĸµ": 7100,
      "çĶľç¾İçļĦ": 7101,
      "åį¡éĢļçīĩ": 7102,
      "ç»½æĶ¾": 7103,
      "ä¸»åĬ¨æıĲåĩº": 7104,
      "ä¸Ģç¾¤": 7105,
      "ä¸Ģæłĭ": 7106,
      "ä»ĸåŃ¦ä¼ļäºĨ": 7107,
      "ä»ĸæĦŁè°¢äºĨ": 7108,
      "å¥¹å¼Ģå§ĭåĵŃæ³£": 7109,
      "åħŃ": 7110,
      "ä»ĸä»¬æ¯ıå¤©ä¸Ģèµ·çİ©èĢį": 7111,
      "æĺ¯åı¯ä»¥çļĦ": 7112,
      "å°ıæıĲçĲ´": 7113,
      "å¤§æµ·": 7114,
      "å¤§æĪ¿åŃĲ": 7115,
      "ä½łåı¯èĥ½ä¼ļ": 7116,
      "ï¼ģâĢľ": 7117,
      "ä½ĨæĹłæ³ķ": 7118,
      "è®¢": 7119,
      "å¥¹çļĦçĲĥ": 7120,
      "å¥¹çļĦæĪ¿éĹ´éĩĮ": 7121,
      "èĴĤå§Ĩå¾Īéļ¾è¿ĩ": 7122,
      "å·¦": 7123,
      "è¦Ĩ": 7124,
      "æĬĬä½łçļĦ": 7125,
      "è½¦ä¸Ĭ": 7126,
      "æ±¤å§Ĩå¾Īä¼¤å¿ĥ": 7127,
      "å¿«çĤ¹": 7128,
      "çĦ¶åĲİä»ĸä»¬ä¸Ģèµ·": 7129,
      "å¸¦åĽŀäºĨå®¶": 7130,
      "æĸ¯å¸ķ": 7131,
      "æĮ¡": 7132,
      "æīĵçĽ¹": 7133,
      "è¿ĻåıªèĿ´èĿ¶": 7134,
      "çĥ«": 7135,
      "èĲ¨å§ĨåĴĮ": 7136,
      "éª¡åŃĲ": 7137,
      "æĸĳçĤ¹çļĦ": 7138,
      "éĤ£æĺ¯ä¸Ģåıª": 7139,
      "åĴĮå¥¹çļĦçİ©åħ·ä¸Ģèµ·çİ©": 7140,
      "åĶ§": 7141,
      "ä¸Ģèµ·çİ©èĢįåĴĮ": 7142,
      "æĺ¯åĲ¦æĥ³": 7143,
      "çīĽæİĴ": 7144,
      "æ±¤å§ĨåĴĮå®īå¨ľ": 7145,
      "ç¬¬ä¸Ģä¸ª": 7146,
      "å¾Īå¥½çľĭ": 7147,
      "ä»ĸçļĦçİ©åħ·æ±½è½¦": 7148,
      "å¹¶ä¸įå®³æĢķ": 7149,
      "æ°¸è¿ľè®°ä½ı": 7150,
      "æĥĬåĸľçļĦæĺ¯": 7151,
      "æķ°åĪ°": 7152,
      "å¾Īé«ĺåħ´èĥ½å¸®åĬ©": 7153,
      "éģĩåĪ°äºĨä¸Ģä¸ªåĲįåı«": 7154,
      "çªĹå¸ĺ": 7155,
      "ä»İæŃ¤è¿ĩä¸ĬäºĨå¹¸ç¦ıå¿«ä¹ĲçļĦçĶŁæ´»": 7156,
      "éĽ·åħĭæĸ¯": 7157,
      "å¢Ļå£ģ": 7158,
      "åģ·åģ·": 7159,
      "è®²äºĨä¸Ģä¸ª": 7160,
      "èĴĤç±³çļĦçĪ¸çĪ¸": 7161,
      "æĬĬçĲĥæīĶ": 7162,
      "åĴĮå®¶äººä¸Ģèµ·åİ»": 7163,
      "äºĨè§£åĪ°": 7164,
      "ä¼ļåıĳçĶŁä»Ģä¹Ī": 7165,
      "è¿Ļæĺ¯ä¸ªå¥½ä¸»æĦı": 7166,
      "ç§ĥé¡¶": 7167,
      "èĦ¸ä¸Ĭå¸¦çĿĢçģ¿çĥĤçļĦç¬ĳå®¹": 7168,
      "äº§çĶŁ": 7169,
      "ä»°æľĽ": 7170,
      "å°½åı¯èĥ½å¿«åľ°": 7171,
      "Mia": 7172,
      "æŃ¦åĻ¨": 7173,
      "ä¸°": 7174,
      "ä¸Ģå¤´": 7175,
      "ä¸ĢæŃ¥": 7176,
      "ä»ĸåĽŀåĪ°": 7177,
      "å¥¹åıĳçİ°äºĨä¸Ģä¸ª": 7178,
      "å¾Ħ": 7179,
      "ä»ĸä»¬åģĩè£ħ": 7180,
      "æī«": 7181,
      "è¿Ļå¾Ī": 7182,
      "ä½łä¹Ł": 7183,
      "æī¾äºĨ": 7184,
      "æī¾äºĨåıĪ": 7185,
      "å½ĵè¯¥åĽŀå®¶çļĦæĹ¶åĢĻ": 7186,
      "çĽ¯": 7187,
      "è¿Ļä¸ªå®¶åºŃ": 7188,
      "è·ĳåĽŀ": 7189,
      "è·ĳè¿Ľ": 7190,
      "æ´Ľ": 7191,
      "åĿª": 7192,
      "å¯¹äºĨ": 7193,
      "æľĢæ£ĴçļĦ": 7194,
      "èĭıåĴĮæ±¤å§Ĩ": 7195,
      "å¥¹åĸľæ¬¢åĴĮå¥¹çļĦå¦Īå¦Ī": 7196,
      "éķ¿æ£įåŃĲ": 7197,
      "åĽŀå®¶åĲİ": 7198,
      "åĪĨäº«çİ©åħ·": 7199,
      "ä¸ĢäºĽä¸ľè¥¿": 7200,
      "åħ³çĪ±": 7201,
      "è¿Ļæĺ¯æĪĳ": 7202,
      "Maxè¯´": 7203,
      "ç©¿ä¸ĬäºĨ": 7204,
      "çĶµçŃĴ": 7205,
      "éĩĮéĿ¢æĺ¯ä»Ģä¹Ī": 7206,
      "åº¦è¿ĩäºĨç¾İå¥½çļĦä¸Ģå¤©": 7207,
      "ä»ĸçļĦå¦Īå¦ĪåĴĮçĪ¸çĪ¸": 7208,
      "èĤ¡": 7209,
      "çĶŁæ´»åľ¨ä¸Ģä¸ª": 7210,
      "åĽ´è£Ļ": 7211,
      "é¥¼å¹²åĴĮ": 7212,
      "åĨįä¹ŁæĹłæ³ķ": 7213,
      "ç¾İä¸½çļĦèĬ±": 7214,
      "æĭįäºĨ": 7215,
      "æĭįçħ§": 7216,
      "åĸĿäºĨ": 7217,
      "åĸ·æ°Ķ": 7218,
      "åį±éĻ©çļĦ": 7219,
      "éĹ»äºĨ": 7220,
      "è¿ĲåĬ¨": 7221,
      "åĲĥå®ĮåĲİ": 7222,
      "æµ´è¢į": 7223,
      "åºķéĥ¨": 7224,
      "ä¾ĿçĦ¶": 7225,
      "æĭĸæĬĬ": 7226,
      "æĿĨåŃĲ": 7227,
      "è´Łè´£": 7228,
      "å¿įä¸įä½ı": 7229,
      "è±¹åŃĲ": 7230,
      "åĻ©æ¢¦": 7231,
      "æī¾äºĨåıĪæī¾": 7232,
      "ll": 7233,
      "ra": 7234,
      "Ħæ¦": 7235,
      "çļĦæĪ¿åŃĲéĩĮ": 7236,
      "å¤ı": 7237,
      "å¥¹çĶ»": 7238,
      "æĿľè¥¿": 7239,
      "æĺ¯å¥½çļĦ": 7240,
      "æĺ¯å¤ļä¹Ī": 7241,
      "çľĭè§ģ": 7242,
      "ä¸įä¸Ģæł·": 7243,
      "å¦Īå¦ĪåĴĮ": 7244,
      "è¿ĻèīĺèĪ¹": 7245,
      "ç»į": 7246,
      "ä½Ĩå¥¹æĥ³": 7247,
      "éĿŀå¸¸æľīè¶£": 7248,
      "åľ°çĲĥ": 7249,
      "ä»ĸçļĦæ±½è½¦": 7250,
      "èĥ½è®©": 7251,
      "äºĨä¸ĢåľĪ": 7252,
      "æłĳæĹģ": 7253,
      "å¤ªå¥½äºĨ": 7254,
      "äºĨä¸Ģä¸ªå°ı": 7255,
      "åħ¬åĽŃéĩĮçļĦ": 7256,
      "çº±": 7257,
      "åıĪå¼Ģå§ĭ": 7258,
      "æ²¡æľīæī¾åĪ°": 7259,
      "é£ŀè¿ĽäºĨ": 7260,
      "åĪ«çļĦ": 7261,
      "éĿŀå¸¸é«ĺåħ´åľ°": 7262,
      "åĨ³å®ļæĬĬ": 7263,
      "åĴĮä»ĸçļĦçĭĹ": 7264,
      "éľ²è¥¿çļĦå¦Īå¦Ī": 7265,
      "çľĭçľĭæĪĳçļĦ": 7266,
      "è£ħæ¸¸æĪı": 7267,
      "æµ·åĨĽ": 7268,
      "çĽ¸å¤Ħ": 7269,
      "è´Ŀè¥¿": 7270,
      "æĶ¶å¥½": 7271,
      "åĶ±ä¸Ģé¦ĸ": 7272,
      "åĺİ": 7273,
      "ä¸įåĸľæ¬¢è¿Ļæł·": 7274,
      "æ©Ħæ¦": 7275,
      "åĨ·éĿĻ": 7276,
      "æīĢæľīçļĦåĬ¨çī©": 7277,
      "çķĻåľ¨äºĨ": 7278,
      "ç²īçº¢": 7279,
      "æīĶæİī": 7280,
      "æľīè¶£çļĦå£°éŁ³": 7281,
      "åĳĬè¯īä»ĸè¦ģ": 7282,
      "åįĪè§ī": 7283,
      "éķĩä¸ĬçļĦ": 7284,
      "åı°çģ¯": 7285,
      "èĢĲçĥ¦": 7286,
      "ä¼¸å±ķ": 7287,
      "åıĸå¾Ĺ": 7288,
      "åīªå¤´åıĳ": 7289,
      "éĽĨå¸Ĥ": 7290,
      "è¦ģåİ»åĵªéĩĮ": 7291,
      "åİĨåı²": 7292,
      "ä¸Ģä¸ªåĲįåı«èİīèİīçļĦå¥³åŃ©": 7293,
      "å¼ıé£ŀæľº": 7294,
      "ç±³çī¹åĽł": 7295,
      "çİ©è¿Ļä¸ªçİ©åħ·": 7296,
      "èµ°è¿ĽäºĨæĪ¿éĹ´": 7297,
      "ç»ĵäº¤äºĨä¸Ģä¸ªæĸ°æľĭåıĭ": 7298,
      "éĻªçĿĢ": 7299,
      "åŀĥåľ¾æ¡¶": 7300,
      "éĤ£åĿĹçŁ³å¤´": 7301,
      "ä»ĭç»į": 7302,
      "æİ¥ä¸ĭæĿ¥åıĳçĶŁäºĨä¸Ģä»¶æĦıæĥ³ä¸įåĪ°çļĦäºĭæĥħ": 7303,
      "æĪĳæĥ³åĴĮä½ł": 7304,
      "Zoom": 7305,
      "åĸ·æ°Ķå¼ıé£ŀæľº": 7306,
      "æ©Ħæ¦Ħ": 7307,
      "´åĦ¿": 7308,
      "çļĦç»ĵå±Ģ": 7309,
      "ä»ĸåºĶè¯¥": 7310,
      "ä¸ªä¸įåģľ": 7311,
      "åľ¨æ±łå¡ĺéĩĮ": 7312,
      "ä»ĸä»¬å¸¦": 7313,
      "ä»ĸä»¬æĪĲäºĨæľĭåıĭ": 7314,
      "çİ©å®ĥ": 7315,
      "å¾Īé«ĺ": 7316,
      "æĪĳæī¾åĪ°": 7317,
      "æĪĳæĥ³è¦ģ": 7318,
      "æĿ¥åģļ": 7319,
      "å¤§åŀĭ": 7320,
      "æĥ³äºĨæĥ³": 7321,
      "ä½Ĩå½ĵä»ĸä»¬": 7322,
      "éĿŀå¸¸å¿«": 7323,
      "éĿŀå¸¸éĩįè¦ģ": 7324,
      "åī²": 7325,
      "æľĭåıĭçļĦ": 7326,
      "è·ª": 7327,
      "å¥¹çļĦç¥ĸæ¯į": 7328,
      "èīº": 7329,
      "å¥³äºº": 7330,
      "è½¦ç«Ļ": 7331,
      "èµ°åĩºæĿ¥": 7332,
      "èµ°å¼ĢäºĨ": 7333,
      "çľĭåĪ°äºĨéĤ£ä¸ª": 7334,
      "èĩªå·±åģļ": 7335,
      "åĲĥçĿĢ": 7336,
      "å¾Īé«ĺåħ´èĩªå·±": 7337,
      "ä»Ģä¹Īéĥ½": 7338,
      "è·³åĪ°äºĨ": 7339,
      "åĽłä¸ºä»ĸçļĦ": 7340,
      "å¥¹çļĦå¦Īå¦ĪåĽŀçŃĶ": 7341,
      "å®ĥä»¬ä¼ļ": 7342,
      "èĭıçıĬ": 7343,
      "æĥĬåĳ¼": 7344,
      "åĥıä¸ª": 7345,
      "çģ«æŁ´": 7346,
      "ç¦»äºĨ": 7347,
      "ä¸Ģä¸ªåĲįåı«éľ²è¥¿": 7348,
      "æİ¥ä½ı": 7349,
      "åĸĬåı«": 7350,
      "åĲ¹è·ĳäºĨ": 7351,
      "çł´å¸ĥ": 7352,
      "ç»¿æ´²": 7353,
      "åıªæĺ¯æĥ³": 7354,
      "éĽªçĲĥ": 7355,
      "çº¢èī²æ±½è½¦": 7356,
      "åĲĵåĪ°": 7357,
      "æĺ¯ä¸ĢåıªéĿŀå¸¸": 7358,
      "æĥ³å¸®åĬ©å®ĥ": 7359,
      "çĤ¹çĤ¹å¤´è¯´": 7360,
      "è¶ĬæĿ¥è¶Ĭè¿ĳ": 7361,
      "éĩĳåŃĲ": 7362,
      "æĬĬå®ĥä»¬éĥ½": 7363,
      "æĮĤçĿĢ": 7364,
      "æį¢è£ħæ¸¸æĪı": 7365,
      "æ½®": 7366,
      "åħįåıĹ": 7367,
      "ç´§ç´§åľ°æĬ±ä½ıäºĨ": 7368,
      "è£Ĥç¼Ŀ": 7369,
      "å©´åĦ¿": 7370,
      "è¸©åĪ°äºĨ": 7371,
      "éĺ´æļĹ": 7372,
      "è®¨è®º": 7373,
      "æĬ¬èµ·å¤´": 7374,
      "ç¨įåĲİ": 7375,
      "æĭ¯æķĳäºĨ": 7376,
      "å¼¯æĽ²": 7377,
      "æĭĴç»ĿäºĨ": 7378,
      "åıĳçĶŁäºĨä¸ĢäºĽæĦıæĥ³ä¸įåĪ°çļĦäºĭæĥħ": 7379,
      "æĮ¥èĪŀçĿĢ": 7380,
      "æ¹¿éĢıäºĨ": 7381,
      "èĪĶäºĨèĪĶ": 7382,
      "åį¢å¨ľ": 7383,
      "Bo": 7384,
      "ĠèĲ¨å§Ĩ": 7385,
      "çļĦæĦŁè§ī": 7386,
      "çļĦæĸ¹å¼ı": 7387,
      "ä»ĸå°Ŀè¯ķ": 7388,
      "ä»ĸéĹ®éģĵ": 7389,
      "å¥¹å¾Īéļ¾è¿ĩ": 7390,
      "å¥¹èº«è¾¹": 7391,
      "åľ¨ç©ºä¸Ń": 7392,
      "ä»ĸä»¬ä¸įåĸľæ¬¢": 7393,
      "ä»ĸä»¬åĲĥäºĨ": 7394,
      "åĴĮMax": 7395,
      "æĺ¯ä¸į": 7396,
      "ä¸įèĢĲçĥ¦": 7397,
      "å¦Īå¦Īè§£éĩĬè¯´": 7398,
      "æĿ¥åĪ°äºĨä¸Ģä¸ª": 7399,
      "è¿Ļè®©å¥¹": 7400,
      "ç»´": 7401,
      "æĥ³æĬĬ": 7402,
      "éĿŀå¸¸é«ĺ": 7403,
      "åĸľæ¬¢è¿Ļä¸ª": 7404,
      "ä¸Ģèµ·åĬªåĬĽ": 7405,
      "ä¸Ģèµ·äº«åıĹ": 7406,
      "æľīä¸Ģä¸ªéĿŀå¸¸": 7407,
      "é¸Ń": 7408,
      "ç»ĻæĪĳä»¬": 7409,
      "èĴĤç±³åľ¨": 7410,
      "èĴĤç±³åĴĮä»ĸçļĦå¦Īå¦Ī": 7411,
      "äºĨä¸Ģé¡¿": 7412,
      "æ±¤å§Ĩåľ¨": 7413,
      "æłĳåĲİéĿ¢": 7414,
      "å¼Ģå§ĭåĲĥ": 7415,
      "çľĭåĪ°äºĨä»ĸä»¬": 7416,
      "çĶ¨æĪĳçļĦ": 7417,
      "çºª": 7418,
      "æĸ°å®¶": 7419,
      "åĲ¬è¯´": 7420,
      "æŀľåŃĲ": 7421,
      "æĽ´å¤§çļĦ": 7422,
      "ä½ľåĵį": 7423,
      "çļĦå°ıæĪ¿åŃĲéĩĮ": 7424,
      "èİīèİīçļĦå¦Īå¦ĪéĹ®å¥¹": 7425,
      "éĹ¨å»Ĭ": 7426,
      "èº«æĪ¿": 7427,
      "æĿ°åħĭåĴĮ": 7428,
      "åħ¶ä»ĸäºº": 7429,
      "æłĳä¸ĬçļĦ": 7430,
      "å½ĵå¥¹åĪ°è¾¾": 7431,
      "æ¼Ĥäº®çļĦèĬ±æľµ": 7432,
      "é¡¶å¸½åŃĲ": 7433,
      "æĳ¸æĳ¸": 7434,
      "çĪ¶äº²": 7435,
      "æĳĶäºĨä¸ĭæĿ¥": 7436,
      "å¤©ç©ºä¸ŃçļĦ": 7437,
      "æĦŁåĪ°éĿŀå¸¸éªĦåĤ²": 7438,
      "åĴ¬äºĨä¸Ģå¤§åı£": 7439,
      "å·¨å¤§çļĦåĵįå£°": 7440,
      "åĲ¬ä»İçĪ¶æ¯į": 7441,
      "å¾Ģä¸ĭ": 7442,
      "çģ°èī²": 7443,
      "åİ»çľĭæľĽ": 7444,
      "ä¸įå¾Ĺä¸įåİ»åĮ»éĻ¢": 7445,
      "æĬĵä½ıäºĨå®ĥ": 7446,
      "è®²æķħäºĭ": 7447,
      "åģ¥èº«æĪ¿": 7448,
      "å¾ĹéĿŀå¸¸å¥½": 7449,
      "æİĴæ°´": 7450,
      "åĵ¨åŃĲ": 7451,
      "çļĦèįīåľ°ä¸Ĭ": 7452,
      "Bunny": 7453,
      "è·ĳå¾Ĺå¿«": 7454,
      "éķ¿å¤§åĲİ": 7455,
      "æĬĢå·§": 7456,
      "æĺ¥å¤©": 7457,
      "èī°éļ¾": 7458,
      "çħİé¥¼": 7459,
      "çļĦéģĵ": 7460,
      "çļĦéĤ£æł·": 7461,
      "ä»ĸåİ»äºĨ": 7462,
      "äºĨè¿ĩæĿ¥": 7463,
      "å¥¹æī¾åĪ°äºĨ": 7464,
      "å¥¹æĭ¿åĩº": 7465,
      "èİīèİīä¸įçŁ¥éģĵ": 7466,
      "å°ıéº¦": 7467,
      "è¿Ļä¸ĢçĤ¹": 7468,
      "ä½łè§īå¾Ĺ": 7469,
      "æĥ³åĪ°äºĨä¸Ģä¸ªä¸»æĦı": 7470,
      "éĤ£ä»¶": 7471,
      "å¥½å¤§": 7472,
      "å¼Ģçİ©ç¬ĳ": 7473,
      "éĿŀå¸¸åĸĦèī¯": 7474,
      "åı«éģĵ": 7475,
      "å¥¹çļĦçĮ«": 7476,
      "èĴĤå§Ĩè¯ķåĽ¾": 7477,
      "çľĭåĪ°ä»ĸåľ¨": 7478,
      "ä¹Łå¾Īä¼¤å¿ĥ": 7479,
      "è·ĳå¾Ĺå¤ªå¿«äºĨ": 7480,
      "çŁ¥éģĵå¦Ĥä½ķ": 7481,
      "çİ©èĢįå¹¶": 7482,
      "ä½Ĩæĺ¯å½ĵä»ĸä»¬": 7483,
      "å¸¦èµ°äºĨ": 7484,
      "åĽłä¸ºå¥¹æĥ³": 7485,
      "å¾Ĺå¾Īåİīå®³": 7486,
      "æ¯ıå½ĵå¥¹": 7487,
      "æīĵäºĨ": 7488,
      "æīĵåĸ·åļı": 7489,
      "èĭıå¾Īä¼¤å¿ĥ": 7490,
      "æıĲç±³å¾Īé«ĺåħ´": 7491,
      "åľ¨ä¸Ģä¸ªéĺ³åħīæĺİåªļçļĦæĹ¥åŃĲéĩĮ": 7492,
      "ä»ĸä»¬éĥ½åĸľæ¬¢": 7493,
      "çļĦå°ıé±¼": 7494,
      "é¸ŁåĦ¿åľ¨": 7495,
      "è¿ľè¿ľ": 7496,
      "çĽ¸éĹ´": 7497,
      "ç¢Į": 7498,
      "æĪĳä»¬åı¯ä»¥åİ»": 7499,
      "æħĮ": 7500,
      "å¸¦çĿĢä»ĸçļĦ": 7501,
      "å¿Ļç¢Į": 7502,
      "é²įåĭĥçļĦ": 7503,
      "æį¡äºĨèµ·æĿ¥": 7504,
      "æ¶¦": 7505,
      "åĿıäºĭ": 7506,
      "æĲľ": 7507,
      "è¿ĻäºĽçİ©åħ·": 7508,
      "ä¸ĢåıªåĲįåı«Max": 7509,
      "æŀ¶åŃĲ": 7510,
      "ç³»éŀĭå¸¦": 7511,
      "åĴĮæľĭåıĭä»¬çİ©": 7512,
      "ä¸ĢåĿĹçŁ³å¤´": 7513,
      "åľ¨ä¸Ģä¸ªå°ıæĿĳåºĦéĩĮ": 7514,
      "èİīèİīå¾Īé«ĺåħ´åľ°": 7515,
      "åľĨæľ¨": 7516,
      "ç½ĲåŃĲéĩĮ": 7517,
      "å¥ĸçīĮ": 7518,
      "ç»ĻäºĨå¥¹ä¸Ģä¸ª": 7519,
      "åĽŀåİ»ç»§ç»Ń": 7520,
      "ç¢°å®ĥ": 7521,
      "åİŁè°ħäºĨ": 7522,
      "åİŁè°ħä½ł": 7523,
      "çĥ¦æģ¼": 7524,
      "è¾£æ¤Ĵ": 7525,
      "Bobo": 7526,
      "éģ¥è¿ľçļĦ": 7527,
      "åħľé£İ": 7528,
      "æĮ£æīİ": 7529,
      "Fre": 7530,
      "Qu": 7531,
      "çį": 7532,
      "Ġæľ¬": 7533,
      "ä»ĸåľ¨åħ¬åĽŃéĩĮ": 7534,
      "ä»ĸç©¿ä¸Ĭ": 7535,
      "äºĨä»ĸä»¬çļĦ": 7536,
      "å¥¹çĪ±": 7537,
      "ä»ĸä»¬æĪĲäºĨå¥½æľĭåıĭ": 7538,
      "åĴĴ": 7539,
      "ä¸Ģä¸ªåĸĦèī¯çļĦ": 7540,
      "å¾Īæľī": 7541,
      "æĪĳå¤ª": 7542,
      "æĪĳåºĶè¯¥": 7543,
      "èĴ¸": 7544,
      "è¿Ļçīĩ": 7545,
      "ï¼ļ\"": 7546,
      "ä»İæĿ¥": 7547,
      "ç»·": 7548,
      "å¥½çľĭ": 7549,
      "å¥½åķĬ": 7550,
      "åıªæĥ³": 7551,
      "å¥¹çļĦå¨ĥå¨ĥ": 7552,
      "èĴĤå§ĨéĹ®éģĵ": 7553,
      "åľ°éĵģ": 7554,
      "äºĨä¸Ģä»¶": 7555,
      "çľĭåĪ°å¥¹åľ¨": 7556,
      "èĲ¥": 7557,
      "èī²å½©æĸĳæĸĵ": 7558,
      "ä¸Ģåıªå°ıèĢģé¼ł": 7559,
      "æ¸Ķ": 7560,
      "æ°´å£¶": 7561,
      "æ²¡æľīåĽŀçŃĶ": 7562,
      "èĢĮæĦŁåĪ°éļ¾è¿ĩ": 7563,
      "æıĲç±³çļĦæľĭåıĭ": 7564,
      "å°ıçĶ·åŃ©è¯´": 7565,
      "æľīä¸Ģåıªåı¯çĪ±": 7566,
      "æŃ£å¥½": 7567,
      "èĥ¡": 7568,
      "ä»¶å¥½äºĭ": 7569,
      "ä»ĸæĥ³çŁ¥éģĵ": 7570,
      "éĶļ": 7571,
      "æĹ¥èĲ½": 7572,
      "æľįåĬ¡": 7573,
      "è·ŁæĪĳæĿ¥": 7574,
      "æķĻæĪĳ": 7575,
      "æ±Ĥæķĳ": 7576,
      "å¨ĥå¨ĥä¸Ģèµ·çİ©": 7577,
      "èįīåĿª": 7578,
      "è½»æĿ¾": 7579,
      "åĲ¹èµ°äºĨ": 7580,
      "èĿ´èĿ¶ç»ĵ": 7581,
      "å®ŀéĻħ": 7582,
      "åĿĲåľ¨éķ¿æ¤ħä¸Ĭ": 7583,
      "å¸½åŃĲåĴĮ": 7584,
      "åĴĮå¦Īå¦Īä¸Ģèµ·åİ»": 7585,
      "çķĻçĿĢ": 7586,
      "éĿŀå¸¸ä¼¤å¿ĥåĴĮ": 7587,
      "ç¼ĺ": 7588,
      "åŀĴ": 7589,
      "äºīè®º": 7590,
      "åĽ½å®¶": 7591,
      "å¥½åĲĥçļĦ": 7592,
      "çĽ®æłĩ": 7593,
      "æ¡ĮåŃĲæĹģ": 7594,
      "ä»ĸä»¬åİ»äºĨåķĨåºĹ": 7595,
      "æ··åĲĪåľ¨ä¸Ģèµ·": 7596,
      "ä¸ĳéĻĭçļĦ": 7597,
      "ä¸įæķ¢çĽ¸ä¿¡èĩªå·±çļĦ": 7598,
      "æĥĬåı¹éģĵ": 7599,
      "ç¬¦åı·": 7600,
      "éĹ»äºĨéĹ»": 7601,
      "çįŃ": 7602,
      "Ġèĭı": 7603,
      "çļĦé¢ľèī²": 7604,
      "çļĦçĭĲçĭ¸": 7605,
      "ä»ĸç¬ĳäºĨ": 7606,
      "ä»ĸæĺ¯ä¸Ģä¸ª": 7607,
      "åĴĮæľĭåıĭ": 7608,
      "å¾Īéĩį": 7609,
      "å¾Īå®īåħ¨": 7610,
      "ä¸įå¤ª": 7611,
      "æī°": 7612,
      "å¦Īå¦Īä¼ļ": 7613,
      "è¿Ļè®©ä»ĸ": 7614,
      "ä»İä¸į": 7615,
      "æĬķ": 7616,
      "åı«æĿ¥äºĨ": 7617,
      "èĴĤå§Ĩæľīä¸Ģä¸ª": 7618,
      "æī¾ä¸Ģä¸ª": 7619,
      "æĪĳä»¬æĺİå¤©": 7620,
      "å¸®ä»ĸ": 7621,
      "åı¯ä»¥åľ¨": 7622,
      "åı¯ä»¥å¸®åĬ©": 7623,
      "è®©èĩªå·±": 7624,
      "è¿Ļä¸ªæĸ°": 7625,
      "ä¸Ģåıªå°ıçĭĹ": 7626,
      "ä¸ĢåıªåĸĦèī¯çļĦ": 7627,
      "çĶ¨ä»ĸ": 7628,
      "äºĨä¸Ģä¸ªæĥĬåĸľ": 7629,
      "æ°´æīĭ": 7630,
      "æ°´æ¯į": 7631,
      "ä½Ĩæĺ¯å¦Īå¦Ī": 7632,
      "çĦ¶åĲİä»ĸä»¬ç»§ç»Ń": 7633,
      "ä¿¯": 7634,
      "é£ŀèĪŀ": 7635,
      "æĻ¾": 7636,
      "è¿ĺåĸľæ¬¢": 7637,
      "åĪ«å®³æĢķ": 7638,
      "èĭıèı²": 7639,
      "çŃĶæ¡Ī": 7640,
      "çĨĬè¯´": 7641,
      "èİīèİīåĴĮéº¦åħĭæĸ¯": 7642,
      "ä»ĸä»¬éĥ½çİ©å¾Ĺå¾Īå¼Ģå¿ĥ": 7643,
      "æĹłçŁ¥": 7644,
      "æ´»åĬĽ": 7645,
      "çł°": 7646,
      "åĢĴå¡Į": 7647,
      "æ´ĹäºĨ": 7648,
      "è½»å£°": 7649,
      "çĭ¬è§Ĵ": 7650,
      "æĽ´å¤ļåħ³äºİ": 7651,
      "æīĢæľīçļĦåŃ©åŃĲ": 7652,
      "æ¯ıå¤©éĥ½åľ¨": 7653,
      "åł¡åŀĴ": 7654,
      "å®ĥæĺ¯æĪĳçļĦ": 7655,
      "æ·±æ·±": 7656,
      "æīĵå¼ĢäºĨçĽĴåŃĲ": 7657,
      "æºľ": 7658,
      "ç¢°åĪ°": 7659,
      "åıĳçĶŁäºĨä¸Ģä»¶": 7660,
      "éĤ®ä»¶": 7661,
      "æĿ¯åŃĲéĩĮ": 7662,
      "åľ¨èĬ±åĽŃéĩĮçİ©èĢį": 7663,
      "æĳĨåĬ¨": 7664,
      "å¤©æ°ĶéĿŀå¸¸": 7665,
      "æľīä¸Ģåıªå°ıçĨĬ": 7666,
      "ä»ĸä»¬åĲ¬åĪ°ä¸Ģå£°å·¨åĵį": 7667,
      "èŀºä¸Ŀ": 7668,
      "ç¾İå¦Ļ": 7669,
      "èĭįçĻ½": 7670,
      "æİīåľ¨äºĨåľ°ä¸Ĭ": 7671,
      "æķĻå¥¹å¦Ĥä½ķ": 7672,
      "åĲĲåı¸": 7673,
      "æĬµæĬĹ": 7674,
      "å¤ªé«ĺåħ´äºĨ": 7675,
      "åĥıä½łä¸Ģæł·": 7676,
      "ç±³çī¹åĽłæĸ¯": 7677,
      "å®ŀéĻħä¸Ĭ": 7678,
      "çĭ¬è§Ĵåħ½": 7679,
      "çļĦæ¼Ĥäº®": 7680,
      "çļĦéĹ®é¢ĺ": 7681,
      "ä»ĸä¹Łæĥ³": 7682,
      "å¥¹ä¸įå°ıå¿ĥ": 7683,
      "å¥¹åĪ°å¤Ħæī¾": 7684,
      "å®ĺ": 7685,
      "åĴĮè¿Ļä¸ª": 7686,
      "å¾ĪæĬ±æŃī": 7687,
      "èİīèİīè·ĳåĪ°": 7688,
      "çľĭçĶµå½±": 7689,
      "ä¸įéľĢè¦ģ": 7690,
      "æī¬": 7691,
      "å¤§æ£įåŃĲ": 7692,
      "å¤§çĮ©çĮ©": 7693,
      "å¥½åŃ©åŃĲ": 7694,
      "éĿŀå¸¸å°ıå¿ĥ": 7695,
      "èĴĤå§ĨéĿŀå¸¸åħ´å¥ĭ": 7696,
      "èĴĤå§Ĩæĺ¯ä¸Ģä¸ª": 7697,
      "åĽŀæĬ¥": 7698,
      "ç»Ļä½łçļĦ": 7699,
      "çİ°åľº": 7700,
      "å¹¶å¼Ģå§ĭ": 7701,
      "ä¹Łç¬ĳäºĨ": 7702,
      "èĲĿåįľ": 7703,
      "éĹ®åıĳçĶŁäºĨä»Ģä¹Īäºĭ": 7704,
      "æĪĲçļĦ": 7705,
      "å¾Īé«ĺåħ´çľĭåĪ°": 7706,
      "åĽłä¸ºå¥¹çļĦ": 7707,
      "æ¸¸èµ°äºĨ": 7708,
      "èĿĩ": 7709,
      "ä»ĸä»¬éĥ½ä¼ļ": 7710,
      "æĦŁè§īéĿŀå¸¸": 7711,
      "æ»¡æĺ¯": 7712,
      "åĶ¬": 7713,
      "ç¾İä¸½çļĦä¸ľè¥¿": 7714,
      "èĪŀèĢħ": 7715,
      "çŃīçŃī": 7716,
      "é¡¶ç«¯": 7717,
      "éĿĴèĽĻè¯´": 7718,
      "åĨįæ¬¡å°Ŀè¯ķ": 7719,
      "æĳĺä¸ĭäºĨ": 7720,
      "æ°¸è¿ľä¸įè¦ģ": 7721,
      "çļĦçĭĹçĭĹ": 7722,
      "æľīè¶£çļĦåĨĴéĻ©": 7723,
      "åĲĵåĶ¬": 7724,
      "æľīä¸Ģä¸ªåĲįåı«èİīèİīçļĦ": 7725,
      "èĴĤç±³çļĦå¦Īå¦Īè¯´": 7726,
      "åĴĮä»ĸçļĦå¦Īå¦Īåİ»äºĨåħ¬åĽŃ": 7727,
      "ä¸Ģæ¬¡åıĪä¸Ģæ¬¡": 7728,
      "åĴĮä½łä¸Ģèµ·": 7729,
      "èļĤèļģä»¬": 7730,
      "å¥¹åĳĬè¯īå¦Īå¦Ī": 7731,
      "èİīæĭīåĴĮæľ¬": 7732,
      "æŁłæª¬æ°´": 7733,
      "åľ¨å¥¹çļĦæĪ¿éĹ´éĩĮ": 7734,
      "æīĩåŃĲ": 7735,
      "å¼ĹéĽ·è¿ª": 7736,
      "çªĿéĩĮ": 7737,
      "åĴ¯åĴ¯åľ°": 7738,
      "éĹ»èµ·æĿ¥å¾Ī": 7739,
      "çļĦèĥĮä¸Ĭ": 7740,
      "çĤİçĥŃçļĦ": 7741,
      "èĭįèĿĩ": 7742,
      "çĦ¦èĻĳ": 7743,
      "çİ¯é¡¾åĽĽåĳ¨": 7744,
      "sy": 7745,
      "ĢçīĽ": 7746,
      "ķè§ģ": 7747,
      "çļĦå°½å¤´": 7748,
      "ä¸Ģéģĵ": 7749,
      "å¥¹è¦ģ": 7750,
      "å¥¹åĲ¬åĪ°äºĨ": 7751,
      "å¥¹åĸĬéģĵ": 7752,
      "å¥¹æĦŁè°¢äºĨ": 7753,
      "åħ«": 7754,
      "æľīä¸¤ä¸ª": 7755,
      "åĲĬ": 7756,
      "åľ¨åŃ¦æł¡": 7757,
      "ä»ĸä»¬åĪĨäº«": 7758,
      "ä»ĸä»¬ä¸įå¾Ĺä¸į": 7759,
      "ä»ĸä»¬æ¯ıå¤©éĥ½ä¼ļ": 7760,
      "æĺ¯çº¢èī²çļĦ": 7761,
      "å°ıæĺİ": 7762,
      "å°ıé©¬": 7763,
      "å°ıå®¶ä¼Ļ": 7764,
      "æĪĳæľīä¸ª": 7765,
      "æĪĳä¸¢äºĨ": 7766,
      "ä¸įåħ¬å¹³": 7767,
      "å§Ĩæĸ¯": 7768,
      "å¦Īå¦ĪéĹ®": 7769,
      "æĿ¥è®¿": 7770,
      "éĤ£æľµ": 7771,
      "æľīä¸Ģä½į": 7772,
      "åıªæĺ¯ä¸Ģä¸ª": 7773,
      "èĴĤå§Ĩå¯¹": 7774,
      "èĴĤå§ĨåĴĮä»ĸçļĦ": 7775,
      "ä»ĸçļĦå¤§": 7776,
      "ä»ĸçļĦçĪ¶æ¯į": 7777,
      "åĽŀäºĭ": 7778,
      "æ²¼": 7779,
      "èĴĤç±³åĨ³å®ļ": 7780,
      "å¹¶å¸®åĬ©": 7781,
      "è¿Ļä¸ªçĽĴåŃĲ": 7782,
      "åĲĥé¥¼å¹²": 7783,
      "åĲĥç³ĸæŀľ": 7784,
      "å¼Ģå¿ĥèµ·æĿ¥": 7785,
      "å°±åľ¨ä»ĸä»¬": 7786,
      "æĺİæĻº": 7787,
      "çļĦèĳ": 7788,
      "ç¬ĳçĿĢåĽŀçŃĶ": 7789,
      "å¤ĸéĿ¢ä¼łæĿ¥": 7790,
      "éľ²èĲ¥": 7791,
      "è¾¹ç¼ĺ": 7792,
      "é¸ŁåĦ¿åĴĮ": 7793,
      "ä¸ĬäºĨçľ¼çĿĽ": 7794,
      "åºĹåĳĺ": 7795,
      "åłª": 7796,
      "æŃ£åľ¨çİ©": 7797,
      "ç½ķè§ģ": 7798,
      "çľĭåĪ°ä¸ĢæĿ¡": 7799,
      "åıĳçİ°äºĨä¸Ģå¼ł": 7800,
      "ä½Ĩå¥¹è¿ĺæĺ¯": 7801,
      "åĩºåİ»çİ©äºĨ": 7802,
      "åĪ¶æľį": 7803,
      "è¿·å¤±": 7804,
      "åİ»äºĨåħ¬åĽŃçİ©": 7805,
      "æ»ĳæ¢¯åĴĮ": 7806,
      "ç¾İåĳ³çļĦé¥¼å¹²": 7807,
      "æľīä¸Ģä¸ªå¤§ç®±åŃĲ": 7808,
      "çĥŃäºĨ": 7809,
      "çĥŃå·§åħĭåĬĽ": 7810,
      "å¥¹éĹ®ä»ĸ": 7811,
      "éĽªåĦ¿": 7812,
      "éŃĶæľ¯": 7813,
      "çĬĢçīĽ": 7814,
      "å½±åĵį": 7815,
      "è¶ĬæĿ¥è¶Ĭé«ĺ": 7816,
      "æĹ§çļĦ": 7817,
      "åĳ³éģĵéĿŀå¸¸å¥½": 7818,
      "éľĢè¦ģå¸®åĬ©çļĦäºº": 7819,
      "æĶ¯æĮģ": 7820,
      "æĴŀåĪ°": 7821,
      "æ²¡æľīåĲ¬å¦Īå¦ĪçļĦè¯Ŀ": 7822,
      "ä½łçľŁæĺ¯ä¸ª": 7823,
      "æķ²äºĨ": 7824,
      "æłĩè®°": 7825,
      "éĹŃä¸ĬäºĨçľ¼çĿĽ": 7826,
      "èººä¸ĭ": 7827,
      "å¯¹èĩªå·±çļĦä½ľåĵģ": 7828,
      "æ¼Ķå¥ıéŁ³ä¹Ĳ": 7829,
      "é¢Ĩå¸¦": 7830,
      "èİīèİīçļĦå¦Īå¦Īè®©å¥¹å¸®å¿Ļ": 7831,
      "åĲ¬èµ·æĿ¥å¾Īæľīè¶£": 7832,
      "ç§ĥå¤´": 7833,
      "åįģåŃĹ": 7834,
      "éĤ£ä½įå¥³å£«": 7835,
      "è©¹å¦®": 7836,
      "è©¹å§Ĩæĸ¯": 7837,
      "ç»Ħç»ĩ": 7838,
      "æ¸Ķå¤«": 7839,
      "ä¸Ģæ¬¡åıĪä¸Ģæ¬¡åľ°": 7840,
      "Mr": 7841,
      "ĠæĸĳçĤ¹": 7842,
      "Ĥç²": 7843,
      "çļĦä¸ĢåĪĩ": 7844,
      "çļĦä¹Ĳè¶£": 7845,
      "å¥¹åİ»äºĨ": 7846,
      "å¥¹è¯·": 7847,
      "å¥¹åĽŀåĪ°": 7848,
      "å¥¹ä¸īå²ģäºĨ": 7849,
      "å¸Ĩ": 7850,
      "èİīèİīçľĭåĪ°äºĨä¸Ģä¸ª": 7851,
      "å¦Īå¦Īå¾®ç¬ĳçĿĢ": 7852,
      "è¿Ļä¼ļ": 7853,
      "åİ»æĹħè¡Į": 7854,
      "å¿ĥå½¢": 7855,
      "é«ĺåıĪ": 7856,
      "è¿ĩçļĦæľĢ": 7857,
      "å¸®å¸®æĪĳ": 7858,
      "åºı": 7859,
      "èĴĤç±³éĿŀå¸¸åħ´å¥ĭ": 7860,
      "ä¹Łåľ¨": 7861,
      "ä¹Łæ²¡æľī": 7862,
      "è¿Ļä¸ªéĹ®é¢ĺ": 7863,
      "åģļäºĨä¸ĢäºĽ": 7864,
      "çĶ¨çļĦ": 7865,
      "çĶ¨ç§¯æľ¨": 7866,
      "æľĢå¤§çļĦ": 7867,
      "æľĭåıĭä»¬ä¸Ģèµ·çİ©": 7868,
      "è·³äºĨ": 7869,
      "åĽłä¸ºä»ĸåĸľæ¬¢": 7870,
      "åĪ«éļ¾è¿ĩ": 7871,
      "æīĭçĶµçŃĴ": 7872,
      "æĭ¿åĽŀ": 7873,
      "æĽ´å¿«": 7874,
      "åıĺåĮĸ": 7875,
      "æĸ¹ä½ĵ": 7876,
      "éº¦åħĭ": 7877,
      "å®Įåħ¨": 7878,
      "é¸ŁåĦ¿ä»¬": 7879,
      "ä»ĸä»¬åľ¨åľ°ä¸Ĭ": 7880,
      "çľŁå®ŀ": 7881,
      "æľ¨å±ĭ": 7882,
      "ç»ĻäºĨå®ĥ": 7883,
      "éĤ£åıªå¤§çĭĹ": 7884,
      "ç½Ĥç²": 7885,
      "åĸĦèī¯çļĦå¥³åŃ©": 7886,
      "å°½åħ¨åĬĽ": 7887,
      "çĽ´åĪ°è¯¥": 7888,
      "æ¼Ĥäº®çļĦèĬ±": 7889,
      "æĵİ": 7890,
      "å¤ªéĺ³åĩºæĿ¥äºĨ": 7891,
      "é»ĳäºĨ": 7892,
      "ä¿ĿæĮģå®īéĿĻ": 7893,
      "ç«ĭæĸ¹ä½ĵ": 7894,
      "èĦļè¶¾": 7895,
      "éĹ»åĪ°äºĨ": 7896,
      "äºĨä¸Ģä¸ªå¤§å¤§çļĦ": 7897,
      "å¾Ĺå¤ªå¿«": 7898,
      "ä½łæĺ¯æĪĳ": 7899,
      "æĿİä¸½": 7900,
      "åĪĢåŃĲ": 7901,
      "æľĿä»ĸä»¬": 7902,
      "åľ¨èĬ±åĽŃéĩĮçİ©": 7903,
      "æ¹ĸéĩĮ": 7904,
      "åĴĮæĪĳä¸Ģèµ·": 7905,
      "éĿ¢åīįè¯´": 7906,
      "çļĦèĦ¸ä¸Ĭ": 7907,
      "æīĵæī«æĪ¿éĹ´": 7908,
      "å¯¼å¸Ī": 7909,
      "å¼ķæĵİ": 7910,
      "èµ°çĿĢçļĦæĹ¶åĢĻ": 7911,
      "æĸĩåŃĹ": 7912,
      "æĿ¥çľĭæľĽ": 7913,
      "è¢«åį¡ä½ıäºĨ": 7914,
      "çĬ¯éĶĻ": 7915,
      "èİ·å¾Ĺ": 7916,
      "å¡ĳæĸĻ": 7917,
      "ç½Ĥç²Ł": 7918,
      "Sq": 7919,
      "çļĦå®¶äºº": 7920,
      "çļĦè¡£æľį": 7921,
      "çļĦçħ§çīĩ": 7922,
      "ä¸ĢæľµèĬ±": 7923,
      "äºĨå®ĥ": 7924,
      "å¥¹æĭ¿": 7925,
      "å¥¹è®¤ä¸º": 7926,
      "åĪ°éĤ£éĩĮæĹ¶": 7927,
      "åĲ±": 7928,
      "ä»ĸä»¬ä¸įåĨį": 7929,
      "ä»ĸä»¬åĽŀå®¶äºĨ": 7930,
      "ä»ĸä»¬æĺ¯åĲ¦åı¯ä»¥": 7931,
      "ä»ĸä»¬åĿĲä¸ĭæĿ¥": 7932,
      "èµŀ": 7933,
      "èİīèİīåĲĳ": 7934,
      "èİīèİīåĽŀçŃĶè¯´": 7935,
      "å°ıåŃ©": 7936,
      "å°ıå¥ĩ": 7937,
      "å°ıè·¯": 7938,
      "å°ıçĮ«åĴª": 7939,
      "å°ıé¸¡": 7940,
      "å®ĥä¸įä¼ļ": 7941,
      "å¦Īå¦ĪéĤ£éĩĮ": 7942,
      "ä½Ĩå¾Īé«ĺåħ´": 7943,
      "æľīä¸Ģåľº": 7944,
      "åı«å¥¹": 7945,
      "å¥¹çļĦå¥¶å¥¶": 7946,
      "èĴĤå§Ĩèµ°åĪ°": 7947,
      "æ±¡": 7948,
      "æ²Ł": 7949,
      "åºĻ": 7950,
      "éĿ¢å¯¹": 7951,
      "è¿Ļä¸ªçĶ·åŃ©": 7952,
      "è·ĳåĽŀå®¶": 7953,
      "åĲĥåĨ°æ·ĩæ·ĭ": 7954,
      "å¾Īé«ĺåħ´ä½łåĸľæ¬¢": 7955,
      "æīĵä¸ª": 7956,
      "æ¼ı": 7957,
      "èĭıéĿŀå¸¸é«ĺåħ´": 7958,
      "åĳĬè¯īæĪĳ": 7959,
      "çļĦè±": 7960,
      "è¿ĻåıªçĨĬ": 7961,
      "èİīèİīåĴĮé©¬åħĭ": 7962,
      "éĤ£éĩĮæľīå¾Īå¤ļ": 7963,
      "è¯ķåĽ¾æĬĬ": 7964,
      "æĢİä¹ĪåĽŀäºĭ": 7965,
      "æ³ķå®ĺ": 7966,
      "çľŁæľīè¶£": 7967,
      "çľŁæĺ¯ä¸ª": 7968,
      "æ»ĳæ»ĳæ¢¯": 7969,
      "å±±åĿ¡": 7970,
      "å¼łå¼Ģ": 7971,
      "ä¹°äºĨä¸ĢäºĽ": 7972,
      "å®Ŀè´µçļĦ": 7973,
      "æĪĳä¼ļå¸®åĬ©": 7974,
      "LilyçļĦå¦Īå¦Ī": 7975,
      "æķĻä¼ļ": 7976,
      "ä¿¡ä»»": 7977,
      "åĿıæİī": 7978,
      "åĮħè£ħ": 7979,
      "èĤĥ": 7980,
      "åĭĩæ°Ķ": 7981,
      "çĿ¡è§īåīį": 7982,
      "æĸ°çļĦä¸Ģæł·": 7983,
      "éŃĶåĬĽ": 7984,
      "çľĭèµ·æĿ¥å¾Īæ¼Ĥäº®": 7985,
      "æĥ³å¸®åĬ©ä»ĸ": 7986,
      "è·³è·ĥåĴĮçİ©èĢį": 7987,
      "èĴĤç±³çļĦå¦Īå¦Īç»Ļä»ĸ": 7988,
      "åĲµæŀ¶": 7989,
      "ä»İæŃ¤è¿ĩä¸ĬäºĨå¹¸ç¦ıçļĦçĶŁæ´»": 7990,
      "çŃĶåºĶä¼ļ": 7991,
      "æ²»æĦĪ": 7992,
      "çģ¯æ³¡": 7993,
      "åľ¨çİ©çļĦæĹ¶åĢĻ": 7994,
      "èĵĿèī²çļĦé¸Ł": 7995,
      "åıĤåĬłä¸Ģä¸ª": 7996,
      "æķ²åĩ»": 7997,
      "çıįå¦®": 7998,
      "å½ĵä»ĸä»¬åĪ°è¾¾æĹ¶": 7999,
      "çł´ç¢İäºĨ": 8000,
      "å°ıéķĩä¸Ĭ": 8001,
      "åħ±åĲĮ": 8002,
      "åĮ¹é©¬": 8003,
      "æĮĳæĪĺ": 8004,
      "ä»ĸæĦıè¯ĨåĪ°èĩªå·±": 8005,
      "ä¸¥èĤĥ": 8006,
      "çĩĥæĸĻ": 8007,
      "ç§ĭåįĥåĴĮæ»ĳæ¢¯ä¸Ĭçİ©èĢį": 8008,
      "çİ©äºĨä¸Ģä¼ļåĦ¿åĲİ": 8009,
      "éª·é«ħå¤´": 8010,
      "les": 8011,
      "æĴŃæĶ¾": 8012,
      "æľīä¸Ģä¸ªçĶ·åŃ©åı«èĴĤç±³": 8013,
      "é¥®æĸĻ": 8014,
      "çĽ¯çĿĢ": 8015,
      "æ²¼æ³½": 8016,
      "¹é¥": 8017,
      "ĵé£İ": 8018,
      "çļĦåĸĦèī¯": 8019,
      "ä¸Ģæ®µ": 8020,
      "ä»ĸè¿ħéĢŁ": 8021,
      "è¯ŀ": 8022,
      "åľ¨ä»ĸä»¬çļĦ": 8023,
      "ä¸Ģä¸ªçĶ·åŃ©": 8024,
      "èİīèİīæ¯ıå¤©éĥ½": 8025,
      "èİīèİīçľĭåĪ°äºĨä¸Ģåıª": 8026,
      "å®ĥæ²¡æľī": 8027,
      "å¤§åŃ¦": 8028,
      "å¤§æµ·éĩĮ": 8029,
      "ç»µ": 8030,
      "æĥ³æĬĬå®ĥ": 8031,
      "ä½Ĩå¥¹çļĦå¦Īå¦Ī": 8032,
      "æĬ¹": 8033,
      "éĿŀå¸¸æ»¡æĦı": 8034,
      "åĸľæ¬¢çľĭ": 8035,
      "éĥ½æľī": 8036,
      "é¸Łç¬¼": 8037,
      "æĪĳä»¬åĽŀå®¶": 8038,
      "çİ©åħ·ç®±éĩĮ": 8039,
      "é£ĵé£İ": 8040,
      "è®©æ¯ıä¸ªäººéĥ½": 8041,
      "æ¸Ĳ": 8042,
      "æĸ°çļĦçİ©åħ·": 8043,
      "ä¿©": 8044,
      "åĲ¬ä¸įåĪ°": 8045,
      "é©°": 8046,
      "è·³å¾Ĺå¾Īé«ĺ": 8047,
      "åĽłä¸ºæĪĳ": 8048,
      "æĭ¿åĪ°äºĨ": 8049,
      "æĭ¿ä¸ĭæĿ¥": 8050,
      "æľīä¸Ģä¸ªå°ıå¥³åŃ©åı«ç±³å¨ħ": 8051,
      "çĪ¸çĪ¸çļĦ": 8052,
      "çĥ¹é¥": 8053,
      "è¯¥åĽŀå®¶äºĨ": 8054,
      "çĪ±å¥¹": 8055,
      "ç»ĵåĨ°": 8056,
      "èİīèİīåĴĮå¥¹çļĦå®¶äºº": 8057,
      "è·¯è¿ĩ": 8058,
      "èµ°äºĨè¿Ľåİ»": 8059,
      "ç«Ł": 8060,
      "ç»ĵæĿŁäºĨ": 8061,
      "çŃīä¸įåıĬ": 8062,
      "æį¡çĲĥ": 8063,
      "æĥ³åĴĮå¥¹": 8064,
      "åĭĩæķ¢åĴĮ": 8065,
      "ç¾İåĳ³çļĦéĽ¶é£Ł": 8066,
      "ä½Ĩå®ĥå¤ªéĩįäºĨ": 8067,
      "æ¼Ķåĩº": 8068,
      "ä»ĸä»¬åĸľæ¬¢ä¸Ģèµ·çİ©": 8069,
      "ä¹Łæĥ³ä¸Ģèµ·çİ©": 8070,
      "åĸĿäºĨä¸ĢäºĽ": 8071,
      "æ»ļåİ»": 8072,
      "èĦ¸ä¸ĬçļĦ": 8073,
      "èĴĤç±³çļĦå¦Īå¦Īè®©ä»ĸ": 8074,
      "å½¼æŃ¤çļĦ": 8075,
      "åĩłä¹İ": 8076,
      "æĪĳä¹ŁçĪ±ä½ł": 8077,
      "çĽĸåŃĲ": 8078,
      "åĬłåħ¥äºĨ": 8079,
      "éĤ®çŃĴ": 8080,
      "ç©¿çĿĢä¸Ģä»¶": 8081,
      "æłĩçŃ¾": 8082,
      "æļ´éĽ¨": 8083,
      "æīĺçĽĺ": 8084,
      "è¿ĻæĿ¡é±¼": 8085,
      "éĹªäº®çļĦä¸ľè¥¿": 8086,
      "åı¯éĿłçļĦ": 8087,
      "æ¶Īéĺ²è½¦": 8088,
      "æŃ£å¸¸çļĦ": 8089,
      "åĲ¼å£°": 8090,
      "åıĳåĩºå¾Īå¤§çļĦåĻªéŁ³": 8091,
      "çĽĽå¤§çļĦæ´¾å¯¹": 8092,
      "æĪĳåı¯ä»¥åĴĮä½łä¸Ģèµ·çİ©åĲĹ": 8093,
      "æµ´ç¼¸éĩĮ": 8094,
      "æ½ľæ°´": 8095,
      "éĩĩæĳĺ": 8096,
      "æľīä¸Ģä¸ªå°ıçĶ·åŃ©åĲįåı«èĴĤç±³": 8097,
      "æ·±åĲ¸ä¸Ģåı£æ°Ķ": 8098,
      "æī£åŃĲ": 8099,
      "å½Ĵè¿ĺ": 8100,
      "ä»ĬæĻļ": 8101,
      "æķĻä»ĸå¦Ĥä½ķ": 8102,
      "èĴ¸æ±½": 8103,
      "çĥ¹é¥ª": 8104,
      "ä»ĸéĿŀå¸¸ä¼¤å¿ĥ": 8105,
      "å¥¹æĦŁåĪ°å¾Īéļ¾è¿ĩ": 8106,
      "ä»ĸä»¬æľīä¸Ģä¸ª": 8107,
      "ä»ĸä»¬æľīå¾Īå¤ļ": 8108,
      "ä»ĸä»¬å¾Īé«ĺåħ´èĥ½": 8109,
      "ä¸Ģä¸ªæĦ¿æľĽ": 8110,
      "åĴĮæĪĳä»¬": 8111,
      "åĴĮé©¬åħĭæĸ¯": 8112,
      "å°ıè¯´": 8113,
      "æĪĳåİŁè°ħä½ł": 8114,
      "æĥ¹": 8115,
      "å®ĥåı¯èĥ½ä¼ļ": 8116,
      "ä½Ĩåľ¨": 8117,
      "ä½Ĩä»ĸçļĦ": 8118,
      "ä¸ĬåĨĻçĿĢ": 8119,
      "åĸľæ¬¢çļĦ": 8120,
      "åĸľæ¬¢å®ĥ": 8121,
      "åİ»æİ¢ç´¢": 8122,
      "èĴĤå§ĨéĿŀå¸¸": 8123,
      "èĴĤå§ĨåĨ³å®ļ": 8124,
      "çī§": 8125,
      "äººåľ¨": 8126,
      "é«ĺåħ´èµ·æĿ¥": 8127,
      "éģĵäºĨ": 8128,
      "éĥ½å¾Īå¼Ģå¿ĥ": 8129,
      "æĪĳä»¬å¾Ĺ": 8130,
      "çŁ®": 8131,
      "çľĭåĪ°èİīèİī": 8132,
      "æ±¤å§ĨçļĦæľĭåıĭ": 8133,
      "è®©åĪ«äºº": 8134,
      "æĦŁåĪ°å®īåħ¨": 8135,
      "åĲĥè¿Ļä¸ª": 8136,
      "è¾ĵ": 8137,
      "åıĪä¼¤å¿ĥ": 8138,
      "é£ŀä¸į": 8139,
      "é£ŀèĪ¹": 8140,
      "åĳĬçīĮ": 8141,
      "åĽłä¸ºå®ĥå¾Ī": 8142,
      "å°±è¦ģ": 8143,
      "æĶ¾åĪ°": 8144,
      "æĶ¾åħ¥": 8145,
      "çļĦèĮ": 8146,
      "èĢģåħĪçĶŁ": 8147,
      "åĭ¤": 8148,
      "çĨĬçĮ«": 8149,
      "ä¸½ä¸Ŀ": 8150,
      "çļĦå°ıæ±½è½¦": 8151,
      "è°¢è°¢æĤ¨": 8152,
      "ä»ĸä»¬åľ¨ä¸Ģèµ·çİ©å¾Ĺå¾Īå¼Ģå¿ĥ": 8153,
      "åħ¨èº«": 8154,
      "å½ĵä»ĸä»¬æŃ£åľ¨": 8155,
      "éĹ¨åĲİéĿ¢": 8156,
      "èµ°åĪ°åĵªéĩĮ": 8157,
      "Lilyè¯´": 8158,
      "ä¿®å¥½çļĦ": 8159,
      "æ¼Ĥäº®çļĦçŁ³å¤´": 8160,
      "çļ®å¸¦": 8161,
      "çļ®æĻ®": 8162,
      "åĽ°åĢ¦": 8163,
      "åı¶åŃĲä¸Ĭ": 8164,
      "ä¸İä¼Ĺ": 8165,
      "ä½Ĩå®ĥé£ŀèµ°äºĨ": 8166,
      "è¿Ļä¹Īåģļ": 8167,
      "åį³ä½¿äºĭæĥħ": 8168,
      "çİĭåĨł": 8169,
      "åĽ½åº¦": 8170,
      "æģ©æĸ¯": 8171,
      "éĩĳå¸ģ": 8172,
      "èĢĲå¿ĥåľ°": 8173,
      "åĵŃäºĨåĩºæĿ¥": 8174,
      "éĤ£ä¸ªäººè¯´": 8175,
      "éħ±æĸĻ": 8176,
      "ç±³çī¹æģ©æĸ¯": 8177,
      "éĹ®ä»ĸæĢİä¹ĪäºĨ": 8178,
      "è¡¨ç¤ºæĦŁè°¢": 8179,
      "obo": 8180,
      "æĿĤè´§": 8181,
      "éľĩåĬ¨": 8182,
      "æĦŁåĪ°å¿«ä¹ĲåĴĮ": 8183,
      "åĺ´éĩĮåı¼çĿĢ": 8184,
      "MaxåĴĮLily": 8185,
      "æ²ĻåŃĲéĩĮçİ©èĢį": 8186,
      "çļĦå¥½åľ°æĸ¹": 8187,
      "åıªæľīä¸īå²ģ": 8188,
      "æĭįæīĵçĿĢ": 8189,
      "æĺĤè´µ": 8190,
      "åľ£è¯ŀ": 8191,
      "æ½ĺè¾¾": 8192,
      "å¤ıå¤©": 8193,
      "ç½Ĥç²ŁèĬ±": 8194,
      "å®Ŀè´µçļĦæķĻè®Ń": 8195,
      "Hoppy": 8196,
      "ä¸¸": 8197,
      "çļĦåı¦ä¸Ģè¾¹": 8198,
      "ä»ĸå¾Īéļ¾è¿ĩ": 8199,
      "åı³": 8200,
      "å¥¹çľĭåĪ°äºĨä¸Ģ": 8201,
      "ä»ĸä»¬ç»Ļ": 8202,
      "ä»ĸä»¬å¿ĺè®°äºĨ": 8203,
      "åĴĮçĭĹçĭĹ": 8204,
      "æĺ¯æľī": 8205,
      "å¾Īå°ı": 8206,
      "èİīèİīéĿŀå¸¸æĥĬè®¶": 8207,
      "ä¸įåĲ¬": 8208,
      "ä¸įåłª": 8209,
      "æĿ¥æ»ļåİ»": 8210,
      "å¤§å±±": 8211,
      "åİ»æµ·æ»©": 8212,
      "äººæİĮ": 8213,
      "å®¶åĬ¡": 8214,
      "å½ĵå¦Īå¦Ī": 8215,
      "èĥ½ä¸įèĥ½": 8216,
      "çľĭåĪ°ä»ĸä»¬": 8217,
      "ä¹Łæĥ³è¦ģ": 8218,
      "è°İ": 8219,
      "åįı": 8220,
      "ä¸ĢåıªçĮ«": 8221,
      "åĽłä¸ºä»ĸæĥ³": 8222,
      "æīĭè¡¨": 8223,
      "æĭ¿åĽŀæĿ¥": 8224,
      "åĳĬè¯īä½ł": 8225,
      "åıĺå¹²åĩĢ": 8226,
      "çĪ¸çĪ¸ä¸Ģèµ·åİ»": 8227,
      "æ¼Ĥäº®çļĦä¸ľè¥¿": 8228,
      "è¿Ļæĺ¯ä½łçļĦ": 8229,
      "æīĢæľīäººéĥ½": 8230,
      "ä½łä»¬å¥½": 8231,
      "çľĭèµ·æĿ¥å¥½": 8232,
      "æ»ĳæĿ¿": 8233,
      "éº¦åħĭæĸ¯åĴĮ": 8234,
      "æŃĮå£°": 8235,
      "èĹıèµ·æĿ¥": 8236,
      "åį¡è½¦åı¸æľº": 8237,
      "æİ¨çĿĢ": 8238,
      "åŁİéķĩ": 8239,
      "ä¸İä»ĸäººåĪĨäº«": 8240,
      "å¹¶ä¸įå¥½": 8241,
      "ç¼Ĩ": 8242,
      "è½¬åĬ¨": 8243,
      "åĴĮæľĭåıĭä»¬ä¸Ģèµ·çİ©èĢį": 8244,
      "ä»ĸä»¬åĸľæ¬¢çİ©": 8245,
      "è·ŁçĿĢå¦Īå¦Ī": 8246,
      "èħĲ": 8247,
      "å®¤åĨħ": 8248,
      "çĽ¸ä¿¡èĩªå·±": 8249,
      "ä¸Ģä¸ªå°ıçĶ·åŃ©åı«": 8250,
      "ä½Ĩæ²¡æľīæĪĲåĬŁ": 8251,
      "éĢĥèĦ±": 8252,
      "éĴŁè¡¨": 8253,
      "ä»ĻäººæİĮ": 8254,
      "æĮĸæ´ŀ": 8255,
      "ä»¥åīįä»İæľª": 8256,
      "è¹¦è¹¦è·³": 8257,
      "è¢«åĽ°åľ¨æłĳä¸Ĭ": 8258,
      "éĤ£æĿ¡é±¼": 8259,
      "å¯¼èĩ´": 8260,
      "å¿«ä¹Ĳåľ°çĶŁæ´»": 8261,
      "å¥½å¿ĥäºº": 8262,
      "é¬¼èĦ¸": 8263,
      "ç»ıåİĨäºĨè®¸å¤ļ": 8264,
      "åįĩèµ·": 8265,
      "å¥¹æľīä¸Ģä»¶": 8266,
      "çİ©å®ĮåĲİ": 8267,
      "è°¦èĻļ": 8268,
      "ä¼Ļä¼´": 8269,
      "çİ»çĴĥæĿ¯": 8270,
      "æīĢæľīçļĦçİ©åħ·éĥ½": 8271,
      "å¯¹ä»ĸäººåıĭåĸĦ": 8272,
      "ä¹ĺåĿĲ": 8273,
      "å®¾å¥ĩ": 8274,
      "Quac": 8275,
      "çļĦé¸ŃåŃĲ": 8276,
      "ä»ĸå¤ª": 8277,
      "ä»ĸæľīå¾Īå¤ļ": 8278,
      "ä»ĸæ¯ıå¤©éĥ½ä¼ļ": 8279,
      "âĢĺ": 8280,
      "âĢĻ": 8281,
      "å¥¹ä¸įåĨį": 8282,
      "å¥¹ä¸įèĥ½": 8283,
      "å¥¹æĺİçĻ½äºĨ": 8284,
      "æľīçĿĢ": 8285,
      "å°ļ": 8286,
      "åľ¨å¢Ļä¸Ĭ": 8287,
      "æĺ¨": 8288,
      "ä»ĸä»¬åıĳçİ°äºĨä¸Ģä¸ª": 8289,
      "ä»ĸä»¬çľĭåĪ°ä¸Ģæ£µ": 8290,
      "ä»ĸä»¬æ¯ıå¤©ä¸Ģèµ·çİ©": 8291,
      "çİ©æĹ¶": 8292,
      "å°ıéĽıèıĬ": 8293,
      "æĪĳæľīä¸Ģä¸ª": 8294,
      "æĪĳè¿·è·¯äºĨ": 8295,
      "å®ĥéĹªéĹªåıĳåħī": 8296,
      "å®ĥçľĭèµ·æĿ¥åĥı": 8297,
      "å¦Īå¦Īè·Łåīįè¯´": 8298,
      "å¤§å¸½åŃĲ": 8299,
      "ç»ľ": 8300,
      "ä½ĨæıĲç±³": 8301,
      "ä¸ĬåºĬ": 8302,
      "æĹ¶ä¼ļ": 8303,
      "ä¸Ģèµ·åİ»äºĨåħ¬åĽŃ": 8304,
      "ä¸Ģèµ·å·¥ä½ľ": 8305,
      "ä¸Ģèµ·åº¦è¿ĩäºĨè®¸å¤ļ": 8306,
      "é«ĺå¡Ķ": 8307,
      "åľ°çľĭçĿĢ": 8308,
      "éĥ½èĥ½": 8309,
      "å½ĵæıĲç±³": 8310,
      "èµ°åĩº": 8311,
      "æ±¤å§ĨçľĭåĪ°": 8312,
      "è®©ä»ĸçļĦ": 8313,
      "åĲįåı«æĸĳçĤ¹": 8314,
      "åĲįåı«é²įåĭĥ": 8315,
      "ä¸ĢåıªæĿ¾é¼ł": 8316,
      "åģļçĤ¹": 8317,
      "è·ĳå¾ĹæĽ´å¿«": 8318,
      "æ²¡èĥ½": 8319,
      "éĻ¤": 8320,
      "åıĪåĨ·": 8321,
      "åıĪä¸Ģéģį": 8322,
      "é£ŀå¿«": 8323,
      "æ¯ıäºº": 8324,
      "çªĥ": 8325,
      "çº¢èĭ¹æŀľ": 8326,
      "æĢ»æĺ¯è¦ģ": 8327,
      "æĢ»æĺ¯ç¡®ä¿Ŀ": 8328,
      "æī¾åĪ°å®ĥçļĦ": 8329,
      "è¿Ļæĺ¯å¥¹": 8330,
      "åħ¶å®ŀ": 8331,
      "å¾ħåľ¨å®¶éĩĮ": 8332,
      "é£İæĬĬ": 8333,
      "æĥĬè®¶çļĦæĺ¯": 8334,
      "è£ħè¿Ľ": 8335,
      "ä¹°åĪ°": 8336,
      "å¤©ç©ºåıĺå¾Ĺ": 8337,
      "åıĳçİ°äºĨä¸Ģæ£µ": 8338,
      "æĶ¾åľ¨äºĨ": 8339,
      "éļıèº«": 8340,
      "ä»ĸåĸľæ¬¢åĴĮä»ĸçļĦæľĭåıĭä»¬": 8341,
      "åĩºåİ»çİ©èĢį": 8342,
      "é¡¶ä¸Ĭ": 8343,
      "æĹ¶éĹ´çļĦ": 8344,
      "æŀ¶é£ŀæľº": 8345,
      "åĽĽå¤Ħå¥Ķè·ĳ": 8346,
      "åıĹä¼¤çļĦå°ıé¸Ł": 8347,
      "åĽŀåĪ°äºĨåħ¬åĽŃ": 8348,
      "å¸ĥå¨ĥå¨ĥ": 8349,
      "èĨı": 8350,
      "çº¢èī²çĲĥ": 8351,
      "ä¸ºèĩªå·±èĥ½": 8352,
      "çº¦ç¿°éĢĬ": 8353,
      "ç³Łç³Ł": 8354,
      "æ±¤ç±³è¯´": 8355,
      "éģĵæŃīå¹¶": 8356,
      "åıĺæĪĲäºĨä¸Ģä¸ª": 8357,
      "æĦŁåĪ°å¾Īæ²®ä¸§": 8358,
      "ä¹±ç³Łç³Ł": 8359,
      "ä½łæĺ¯æĪĳçļĦ": 8360,
      "é£İåĲ¹è¿ĩ": 8361,
      "è·ĳæŃ¥åĴĮçİ©èĢį": 8362,
      "åĬ¨çī©åĽŃéĩĮ": 8363,
      "å¦Īå¦ĪçļĦæīĭ": 8364,
      "Flop": 8365,
      "æĻ¯èī²": 8366,
      "å¥¹åĸľæ¬¢åĴĮå¥¹çļĦæľĭåıĭä»¬åľ¨åħ¬åĽŃéĩĮçİ©": 8367,
      "åģļåĪ°çļĦ": 8368,
      "æĪĺæĸĹ": 8369,
      "è§ĴèĲ½éĩĮ": 8370,
      "èĥľåĪ©": 8371,
      "æĲŀç¬ĳçļĦè¡¨æĥħ": 8372,
      "éĢĶä¸Ń": 8373,
      "å¯¹åĪ«äººåıĭå¥½": 8374,
      "èĦıåħ®åħ®çļĦ": 8375,
      "ä¸¹å°¼": 8376,
      "æĥĬåĳ¼éģĵ": 8377,
      "èħĲçĥĤ": 8378,
      "bb": 8379,
      "·ç¼©": 8380,
      "ç¹": 8381,
      "ĩæĮĩ": 8382,
      "çļĦåľ°": 8383,
      "çļĦæľīè¶£": 8384,
      "ä¸ĢåłĨ": 8385,
      "ä»ĸå®¶": 8386,
      "ä»ĸæĦŁè§ī": 8387,
      "ä»ĸåıªæĺ¯": 8388,
      "å¥¹è®©": 8389,
      "å¥¹è¿«ä¸įåıĬå¾ħåľ°æĥ³": 8390,
      "æľīå°ı": 8391,
      "åľ¨ä¹İ": 8392,
      "ä»ĸä»¬æĦŁåĪ°": 8393,
      "ä»ĸä»¬åİ»äºĨåħ¬åĽŃ": 8394,
      "ä»ĸä»¬è®¤ä¸º": 8395,
      "åĴĮèĭı": 8396,
      "åĴĮæĪĳçļĦ": 8397,
      "ä¹¡": 8398,
      "æĥķ": 8399,
      "ç»ĺ": 8400,
      "éĤ£åº§": 8401,
      "éĤ£æľµèĬ±": 8402,
      "åĪ°äºĨåľ°ä¸Ĭ": 8403,
      "åĪ°äºĨæĻļä¸Ĭ": 8404,
      "æĭĩæĮĩ": 8405,
      "æľīä¸Ģä¸ªåĸľæ¬¢": 8406,
      "æī¾ä¸į": 8407,
      "æ²«": 8408,
      "èĴĤç±³çľĭåĪ°": 8409,
      "å¤ļå°ĳ": 8410,
      "åĲįåı«èĭı": 8411,
      "ä¸Ģèµ·çİ©å¾Ĺ": 8412,
      "çĶ¨æ£įåŃĲ": 8413,
      "æ°´è¾¹": 8414,
      "éľľ": 8415,
      "è·³å¾Ĺ": 8416,
      "èĢĮé«ĺåħ´": 8417,
      "å¾Ĺå¾Īæħ¢": 8418,
      "æ¯ıä¸Ģä¸ª": 8419,
      "é©¬è·¯": 8420,
      "å°ıé¸ŁéĿŀå¸¸é«ĺåħ´": 8421,
      "è¡ĮæĺŁ": 8422,
      "åĴĮä»ĸçļĦçİ©åħ·": 8423,
      "æ¼Ĥæµ®": 8424,
      "éĹªèĢĢ": 8425,
      "åķ¦": 8426,
      "åħ´å¥ĭäºĨ": 8427,
      "æ·¡": 8428,
      "ä¿Ŀç½Ĺ": 8429,
      "ä¸įçŁ¥éģĵè¯¥": 8430,
      "ç©ºçļĦ": 8431,
      "å¾®éķľ": 8432,
      "èľ·ç¼©": 8433,
      "è¯·ç»ĻæĪĳ": 8434,
      "ä½Ĩä»ĸæ²¡æľī": 8435,
      "æĶ¶åĪ°äºĨ": 8436,
      "åº¦è¿ĩäºĨå¾Ī": 8437,
      "é²įåĭĥè¯´": 8438,
      "èİīèİīçļĦæľĭåıĭä»¬": 8439,
      "æ¶²": 8440,
      "ç»Ļå¥¹çľĭ": 8441,
      "åĲ¹å¥ı": 8442,
      "èĮİ": 8443,
      "çĵ¢": 8444,
      "åĨĴéĻ©ç»ıåİĨ": 8445,
      "æŀ¶ä¸Ĭ": 8446,
      "åºĬåįķ": 8447,
      "ç¨Ģ": 8448,
      "çĥŃæĥħ": 8449,
      "ä½Ĩå®ĥå¤ª": 8450,
      "åĴĮæľĭåıĭä»¬åĪĨäº«": 8451,
      "æĵ¦äº®": 8452,
      "éŀł": 8453,
      "èĴĤç±³åĸľæ¬¢çİ©ä»ĸçļĦçİ©åħ·": 8454,
      "è¶ĬæĿ¥è¶Ĭå¤§": 8455,
      "èŃ¦æĥķ": 8456,
      "å¥¹å¦Īå¦ĪåĽŀçŃĶ": 8457,
      "ä½łåľ¨åĵªéĩĮ": 8458,
      "æĿİåŃĲ": 8459,
      "æ©¡æłĳ": 8460,
      "åº¦è¿ĩäºĨä¸Ģä¸ªæĦīå¿«çļĦæĹ¶åħī": 8461,
      "åº·å¤į": 8462,
      "ç½ĳç»ľ": 8463,
      "åİ¨æĪ¿éĩĮå¸®åĬ©å¦Īå¦Ī": 8464,
      "ä»¤äººæĦıæĥ³ä¸įåĪ°çļĦäºĭæĥħ": 8465,
      "æĬ¬å¤´çľĭäºĨçľĭ": 8466,
      "æĲ¬åĪ°": 8467,
      "å°½åĬĽèĢĮ": 8468,
      "Floppy": 8469,
      "äºĨåıĪå°Ŀè¯ķ": 8470,
      "åħ±åº¦": 8471,
      "åĩ¶çĭł": 8472,
      "æĩĴçĮ«": 8473,
      "çļĦä¸Ģéĥ¨åĪĨ": 8474,
      "èľ¡ç¬Ķ": 8475,
      "è¿Ļä»¶äºĭ": 8476,
      "æĺ¾å¾®éķľ": 8477,
      "æīŃåĬ¨": 8478,
      "ä¸ĢéģįåıĪä¸Ģéģį": 8479,
      "æ´Ĺå®Įæ¾¡": 8480,
      "çī§åľº": 8481,
      "ar": 8482,
      "ŀçīĩ": 8483,
      "ä¸ļ": 8484,
      "çļĦå°¾å·´": 8485,
      "ä¸Ģè·¯": 8486,
      "ä»ĸæĹłæ³ķ": 8487,
      "ä»ĸæķ´å¤©éĥ½åľ¨": 8488,
      "ä»ĸæľĢåĸľæ¬¢çļĦçİ©åħ·": 8489,
      "å¥¹æľĭåıĭ": 8490,
      "å¥¹æŃ£åľ¨": 8491,
      "å¥¹è·Łåīį": 8492,
      "åľ¨ä½ł": 8493,
      "ä»ĸä»¬ä¸įèĥ½": 8494,
      "çİ©ä»ĸçļĦ": 8495,
      "åĴĮçº¸": 8496,
      "èİīèİīå¸¦çĿĢ": 8497,
      "èİīèİīåĲ¬åĪ°": 8498,
      "èİīèİīæ³¨æĦıåĪ°": 8499,
      "ä¸įéĤ£ä¹Ī": 8500,
      "å®ĥçĶ¨": 8501,
      "å®ĥçļĦæľĭåıĭ": 8502,
      "å¦Īå¦Īæĺ¯å¯¹çļĦ": 8503,
      "è¿Ļæŀļ": 8504,
      "ä¼¯": 8505,
      "éĤ£è¾¹": 8506,
      "ä¸ĬçĪ¬": 8507,
      "éĿŀå¸¸ç¾İåĳ³": 8508,
      "åı«ä»ĸ": 8509,
      "æĹ¶å°ļ": 8510,
      "å¥¹çļĦçĶ»": 8511,
      "åĳ±": 8512,
      "é¸Łåľ¨": 8513,
      "æ±¤å§ĨæĬĬ": 8514,
      "çĶ·åŃĲ": 8515,
      "åĲįåı«æıĲç±³": 8516,
      "åģļä¸ª": 8517,
      "è·ĳå¼ĢäºĨ": 8518,
      "å¸®åĬ©èİīèİī": 8519,
      "å¯¹è¿Ļä¸ª": 8520,
      "æľĭåıĭä»¬åĪĨäº«": 8521,
      "ä½Ĩæĺ¯å®ĥ": 8522,
      "çŃı": 8523,
      "èĬ±äºĨ": 8524,
      "æĸ¯æ´¾": 8525,
      "é£ŀèµ·æĿ¥": 8526,
      "åħīäº®": 8527,
      "å¾Ĺå¾Īå¤§": 8528,
      "æīĭæŀª": 8529,
      "èĭıçļĦå¦Īå¦Ī": 8530,
      "ä½ľçĶ¨": 8531,
      "å¹²å¾Ĺå¥½": 8532,
      "çĪ±ä¸½ä¸Ŀ": 8533,
      "èº¬": 8534,
      "éĤ£éĩĮæľī": 8535,
      "ä½łçļĦè½¦": 8536,
      "éľ²åĩºäºĨ": 8537,
      "åħ³æ³¨": 8538,
      "å¤ĦçĲĨ": 8539,
      "åºĹéĩĮ": 8540,
      "æŃĮåī§": 8541,
      "è¿ĩæĿ¥çľĭçľĭåıĳçĶŁäºĨä»Ģä¹Īäºĭ": 8542,
      "è¡£è£Ļ": 8543,
      "æ´Ĺè¡£": 8544,
      "åĵįäºĨ": 8545,
      "æ¸©åº¦": 8546,
      "å¿«ä¹ĲçļĦçĭĹ": 8547,
      "ç¼ĵ": 8548,
      "è½¯çļĦ": 8549,
      "ç»ĪçĤ¹": 8550,
      "æĭ¥æĬ±äºĨå¥¹çļĦå¦Īå¦Ī": 8551,
      "æĦŁåĪ°éĿŀå¸¸éļ¾è¿ĩ": 8552,
      "çľĭèµ·æĿ¥å¾Īæľīè¶£": 8553,
      "ĠèİīèİīåĽŀçŃĶ": 8554,
      "é³ŀçīĩ": 8555,
      "èİīèİīæĥ³åĩºäºĨä¸Ģä¸ªä¸»æĦı": 8556,
      "èµ°è¿Ľå±ĭåŃĲ": 8557,
      "æ¸ħçĲĨäºĨ": 8558,
      "åĴĮåħ¶ä»ĸåĬ¨çī©": 8559,
      "åĩ»ä¸Ń": 8560,
      "è¿½éĢĲçĿĢ": 8561,
      "èĥĮä¸Ĭ": 8562,
      "è´Ńä¹°": 8563,
      "èŀįåĮĸäºĨ": 8564,
      "èĳĹåĲįçļĦ": 8565,
[...]
